{
  "version": "1.0",
  "truncation": null,
  "padding": null,
  "added_tokens": [
    {
      "id": 0,
      "content": "<|pad|>",
      "single_word": false,
      "lstrip": false,
      "rstrip": false,
      "normalized": false,
      "special": true
    },
    {
      "id": 1,
      "content": "<|endoftext|>",
      "single_word": false,
      "lstrip": false,
      "rstrip": false,
      "normalized": false,
      "special": true
    },
    {
      "id": 2,
      "content": "<|unk|>",
      "single_word": false,
      "lstrip": false,
      "rstrip": false,
      "normalized": false,
      "special": true
    },
    {
      "id": 3,
      "content": "<|system|>",
      "single_word": false,
      "lstrip": false,
      "rstrip": false,
      "normalized": false,
      "special": true
    },
    {
      "id": 4,
      "content": "<|user|>",
      "single_word": false,
      "lstrip": false,
      "rstrip": false,
      "normalized": false,
      "special": true
    },
    {
      "id": 5,
      "content": "<|assistant|>",
      "single_word": false,
      "lstrip": false,
      "rstrip": false,
      "normalized": false,
      "special": true
    },
    {
      "id": 6,
      "content": "<|end|>",
      "single_word": false,
      "lstrip": false,
      "rstrip": false,
      "normalized": false,
      "special": true
    }
  ],
  "normalizer": null,
  "pre_tokenizer": {
    "type": "ByteLevel",
    "add_prefix_space": false,
    "trim_offsets": true,
    "use_regex": true
  },
  "post_processor": null,
  "decoder": {
    "type": "ByteLevel",
    "add_prefix_space": true,
    "trim_offsets": true,
    "use_regex": true
  },
  "model": {
    "type": "BPE",
    "dropout": null,
    "unk_token": "<|unk|>",
    "continuing_subword_prefix": null,
    "end_of_word_suffix": null,
    "fuse_unk": false,
    "byte_fallback": false,
    "ignore_merges": false,
    "vocab": {
      "<|pad|>": 0,
      "<|endoftext|>": 1,
      "<|unk|>": 2,
      "<|system|>": 3,
      "<|user|>": 4,
      "<|assistant|>": 5,
      "<|end|>": 6,
      "!": 7,
      "\"": 8,
      "#": 9,
      "$": 10,
      "%": 11,
      "&": 12,
      "'": 13,
      "(": 14,
      ")": 15,
      "*": 16,
      "+": 17,
      ",": 18,
      "-": 19,
      ".": 20,
      "/": 21,
      "0": 22,
      "1": 23,
      "2": 24,
      "3": 25,
      "4": 26,
      "5": 27,
      "6": 28,
      "7": 29,
      "8": 30,
      "9": 31,
      ":": 32,
      ";": 33,
      "<": 34,
      "=": 35,
      ">": 36,
      "?": 37,
      "@": 38,
      "A": 39,
      "B": 40,
      "C": 41,
      "D": 42,
      "E": 43,
      "F": 44,
      "G": 45,
      "H": 46,
      "I": 47,
      "J": 48,
      "K": 49,
      "L": 50,
      "M": 51,
      "N": 52,
      "O": 53,
      "P": 54,
      "Q": 55,
      "R": 56,
      "S": 57,
      "T": 58,
      "U": 59,
      "V": 60,
      "W": 61,
      "X": 62,
      "Y": 63,
      "Z": 64,
      "[": 65,
      "\\": 66,
      "]": 67,
      "^": 68,
      "_": 69,
      "`": 70,
      "a": 71,
      "b": 72,
      "c": 73,
      "d": 74,
      "e": 75,
      "f": 76,
      "g": 77,
      "h": 78,
      "i": 79,
      "j": 80,
      "k": 81,
      "l": 82,
      "m": 83,
      "n": 84,
      "o": 85,
      "p": 86,
      "q": 87,
      "r": 88,
      "s": 89,
      "t": 90,
      "u": 91,
      "v": 92,
      "w": 93,
      "x": 94,
      "y": 95,
      "z": 96,
      "{": 97,
      "|": 98,
      "}": 99,
      "~": 100,
      "¢": 101,
      "Ã": 102,
      "â": 103,
      "Ċ": 104,
      "Ġ": 105,
      "Ģ": 106,
      "ģ": 107,
      "ħ": 108,
      "Ĩ": 109,
      "Ī": 110,
      "Ĳ": 111,
      "ĳ": 112,
      "Ĵ": 113,
      "ĵ": 114,
      "Ķ": 115,
      "ķ": 116,
      "Ĺ": 117,
      "ĺ": 118,
      "ļ": 119,
      "ľ": 120,
      "Ŀ": 121,
      "ł": 122,
      "âķ": 123,
      "âķĲ": 124,
      "âķĲâķĲ": 125,
      "ĠĠ": 126,
      "Ġ=": 127,
      "le": 128,
      "âķĲâķĲâķĲâķĲ": 129,
      "Ġ\"": 130,
      "in": 131,
      "Ġ(": 132,
      "Ġle": 133,
      "Ġt": 134,
      "Ġlet": 135,
      "en": 136,
      "Ġp": 137,
      "ĠĠĠ": 138,
      "Ġs": 139,
      "re": 140,
      "âķĲâķĲâķĲâķĲâķĲâķĲâķĲâķĲ": 141,
      "te": 142,
      "se": 143,
      "Ġc": 144,
      "Ġ_": 145,
      "el": 146,
      "ra": 147,
      "Ġa": 148,
      "il": 149,
      "on": 150,
      "at": 151,
      "st": 152,
      "Ġth": 153,
      "Ġpr": 154,
      "int": 155,
      "Ġ0": 156,
      "Ġi": 157,
      "Ġf": 158,
      "Ġ-": 159,
      "ar": 160,
      "\",": 161,
      "Ġx": 162,
      "else": 163,
      "Ġthen": 164,
      "Ġelse": 165,
      "Ġprint": 166,
      "de": 167,
      "Ġ[": 168,
      "Ġl": 169,
      "mp": 170,
      "or": 171,
      "ad": 172,
      "Ġ1": 173,
      "âķĲâķĲâķĲâķĲâķĲâķĲâķĲâķĲâķĲâķĲâķĲâķĲâķĲâķĲâķĲâķĲ": 174,
      "Ġif": 175,
      "Ġ|": 176,
      "al": 177,
      "))": 178,
      "Ġw": 179,
      "ail": 180,
      "he": 181,
      "ho": 182,
      "ma": 183,
      "Ġn": 184,
      "xt": 185,
      "as": 186,
      "ri": 187,
      "Ġre": 188,
      "Ġ==": 189,
      "Ġb": 190,
      "th": 191,
      "es": 192,
      "Ġr": 193,
      "er": 194,
      "end": 195,
      "un": 196,
      "Ġ->": 197,
      "rail": 198,
      "sp": 199,
      "how": 200,
      "me": 201,
      "di": 202,
      "ĠĠĠĠĠ": 203,
      "--": 204,
      "âĶ": 205,
      "main": 206,
      "ing": 207,
      "âĶĢ": 208,
      "ol": 209,
      "ode": 210,
      "it": 211,
      "Ġ2": 212,
      "Ġe": 213,
      "Ġ+": 214,
      "of": 215,
      "Ġst": 216,
      "âĶĢâĶĢ": 217,
      "ile": 218,
      "head": 219,
      "\\\"": 220,
      "ng": 221,
      "text": 222,
      "ig": 223,
      "Ġto": 224,
      "ent": 225,
      "Ġ[\"": 226,
      "ct": 227,
      "ch": 228,
      "ĠR": 229,
      "cat": 230,
      "Ġ\",": 231,
      "ul": 232,
      "Ġm": 233,
      "|>": 234,
      "<|": 235,
      "endof": 236,
      "endoftext": 237,
      "ion": 238,
      "ge": 239,
      "ro": 240,
      "an": 241,
      "ore": 242,
      "tail": 243,
      "</": 244,
      "pe": 245,
      "lo": 246,
      "ign": 247,
      "ngth": 248,
      "rite": 249,
      "ve": 250,
      "ap": 251,
      "fore": 252,
      "='": 253,
      "\"]": 254,
      "ut": 255,
      "foreign": 256,
      "ass": 257,
      "op": 258,
      "âķĲâķĲâķĲâķĲâķĲâķĲâķĲâķĲâķĲâķĲâķĲâķĲâķĲâķĲâķĲâķĲâķĲâķĲâķĲâķĲâķĲâķĲâķĲâķĲâķĲâķĲâķĲâķĲâķĲâķĲâķĲâķĲ": 259,
      "Ġv": 260,
      "hel": 261,
      "div": 262,
      "Ġ\"\\": 263,
      "show": 264,
      "omp": 265,
      "ĠRail": 266,
      "ac": 267,
      "tmp": 268,
      "Ġhead": 269,
      "Ġlength": 270,
      "ĠN": 271,
      "Ġh": 272,
      "if": 273,
      "Ġg": 274,
      "Ġ#": 275,
      "hell": 276,
      "ty": 277,
      "ist": 278,
      "ter": 279,
      "ram": 280,
      "rain": 281,
      "Ġstr": 282,
      "Ġshow": 283,
      "og": 284,
      "00": 285,
      "ĠS": 286,
      "Ġd": 287,
      "um": 288,
      "Ġ3": 289,
      "âĶĢâĶĢâĶĢâĶĢ": 290,
      "Ġq": 291,
      "Ġ--": 292,
      "Ġan": 293,
      "lass": 294,
      "'>": 295,
      "px": 296,
      "ĠĠĠĠ": 297,
      "ont": 298,
      "Ġclass": 299,
      "Ġex": 300,
      "ks": 301,
      "ame": 302,
      "type": 303,
      "ĠC": 304,
      "lit": 305,
      "ts": 306,
      "Ġ/": 307,
      "Ġprog": 308,
      "file": 309,
      "Ġ\"/": 310,
      "\")": 311,
      "son": 312,
      "Ġxs": 313,
      "json": 314,
      "ir": 315,
      "ur": 316,
      "to": 317,
      "Ġprogram": 318,
      "od": 319,
      "str": 320,
      "Ġar": 321,
      "us": 322,
      "Ġ>": 323,
      "atch": 324,
      "ult": 325,
      "la": 326,
      "Ġpar": 327,
      "ort": 328,
      "iz": 329,
      "])": 330,
      "ver": 331,
      "ys": 332,
      "ĠL": 333,
      "span": 334,
      "get": 335,
      "Ġin": 336,
      "Ġ\"<": 337,
      "id": 338,
      "Write": 339,
      "ons": 340,
      "one": 341,
      "ĠA": 342,
      "ine": 343,
      "ompile": 344,
      "ic": 345,
      "Ġ5": 346,
      "Ġthat": 347,
      "train": 348,
      "Ġwrite": 349,
      "out": 350,
      "ĠP": 351,
      "ĠM": 352,
      "ht": 353,
      "ize": 354,
      "Ġrun": 355,
      "oun": 356,
      "Ġshell": 357,
      "ted": 358,
      "ag": 359,
      "txt": 360,
      "af": 361,
      "Ġ'": 362,
      "pend": 363,
      ")))": 364,
      "rim": 365,
      "Ġ4": 366,
      "Ġand": 367,
      "Ġts": 368,
      ">\"": 369,
      "Ġde": 370,
      "ines": 371,
      "ser": 372,
      "ĠT": 373,
      "oin": 374,
      "ue": 375,
      "\"])": 376,
      "><": 377,
      "Ġ<": 378,
      "et": 379,
      "col": 380,
      "]\\": 381,
      "Ġthe": 382,
      "Ġ.": 383,
      "har": 384,
      "Ġad": 385,
      "Ġint": 386,
      "join": 387,
      "ive": 388,
      "pr": 389,
      "Ġrest": 390,
      "split": 391,
      "Ġmatch": 392,
      "Ġ\"\"": 393,
      "Ġcode": 394,
      "ĠO": 395,
      "Ġres": 396,
      "Ġâ": 397,
      "ot": 398,
      "ath": 399,
      ":\\": 400,
      "Ġ*": 401,
      "air": 402,
      "Ġcs": 403,
      "ry": 404,
      "Ġfor": 405,
      "ction": 406,
      "ĠĠĠĠĠĠĠ": 407,
      "ĠE": 408,
      "cle": 409,
      "ith": 410,
      "Ġtrim": 411,
      "ed": 412,
      "ack": 413,
      "Ġ10": 414,
      "eaf": 415,
      "fa": 416,
      "der": 417,
      "Ġlist": 418,
      "pro": 419,
      "Ġcat": 420,
      "cc": 421,
      "shell": 422,
      "all": 423,
      "29": 424,
      "ib": 425,
      "ke": 426,
      "></": 427,
      "Ġld": 428,
      "ken": 429,
      "âĶĢâĶĢâĶĢâĶĢâĶĢâĶĢâĶĢâĶĢ": 430,
      "Ġname": 431,
      "tWrite": 432,
      "Ġsp": 433,
      "res": 434,
      "ex": 435,
      "16": 436,
      "mple": 437,
      "ull": 438,
      "vest": 439,
      "ff": 440,
      "val": 441,
      "ate": 442,
      "ontent": 443,
      "Ġlines": 444,
      "env": 445,
      "age": 446,
      "Ġop": 447,
      "Ġlc": 448,
      "color": 449,
      "}\"": 450,
      "ome": 451,
      "add": 452,
      "ck": 453,
      "âķĲâķĲâķĲâķĲâķĲâķĲ": 454,
      "map": 455,
      "Ġport": 456,
      "Ġtas": 457,
      "tion": 458,
      "ount": 459,
      "],": 460,
      "ĠâķĲâķĲâķĲâķĲâķĲâķĲâķĲâķĲâķĲâķĲâķĲâķĲâķĲâķĲâķĲâķĲâķĲâķĲâķĲâķĲâķĲâķĲâķĲâķĲâķĲâķĲâķĲâķĲâķĲâķĲâķĲâķĲ": 461,
      "âķĲâķĲâķĲâķĲâķĲâķĲâķĲâķĲâķĲâķĲâķĲâķĲâķĲâķĲâķĲâķĲâķĲâķĲâķĲâķĲâķĲâķĲâķĲâķĲâķĲâķĲâķĲâķĲâķĲâķĲâķĲâķĲâķĲâķĲâķĲâķĲâķĲâķĲâķĲâķĲ": 462,
      "ĠâķĲâķĲâķĲâķĲâķĲâķĲâķĲâķĲâķĲâķĲâķĲâķĲâķĲâķĲâķĲâķĲâķĲâķĲâķĲâķĲâķĲâķĲâķĲâķĲâķĲâķĲâķĲâķĲâķĲâķĲâķĲâķĲâķĲâķĲâķĲâķĲâķĲâķĲâķĲâķĲâķĲâķĲâķĲâķĲâķĲâķĲâķĲâķĲâķĲâķĲâķĲâķĲâķĲâķĲâķĲâķĲâķĲâķĲâķĲâķĲâķĲâķĲâķĲâķĲâķĲâķĲâķĲâķĲâķĲâķĲâķĲâķĲ": 463,
      "arg": 464,
      "Ġnode": 465,
      "up": 466,
      "is": 467,
      "Ġarg": 468,
      "10": 469,
      "Ġsys": 470,
      "code": 471,
      "esc": 472,
      "ow": 473,
      "Ġy": 474,
      "ody": 475,
      ":#": 476,
      "Ġparts": 477,
      "ĠâķĲâķĲâķĲâķĲâķĲâķĲâķĲâķĲâķĲâķĲâķĲâķĲâķĲâķĲâķĲâķĲâķĲâķĲâķĲâķĲâķĲâķĲâķĲâķĲâķĲâķĲâķĲâķĲâķĲâķĲâķĲâķĲâķĲâķĲâķĲâķĲâķĲâķĲâķĲâķĲâķĲâķĲâķĲâķĲâķĲâķĲâķĲâķĲâķĲâķĲâķĲâķĲâķĲâķĲâķĲâķĲâķĲâķĲâķĲâķĲâķĲâķĲâķĲâķĲâķĲâķĲâķĲâķĲâķĲâķĲâķĲâķĲâķĲâķĲâķĲâķĲâķĲâķĲ": 478,
      "rate": 479,
      "ub": 480,
      "om": 481,
      "ols": 482,
      "ĠâĢ": 483,
      "Ġ&": 484,
      "Ġval": 485,
      ")\\": 486,
      "ment": 487,
      "Ġap": 488,
      "ĠâĢĶ": 489,
      "md": 490,
      "Ġcompile": 491,
      "Ġ\".": 492,
      "ĠF": 493,
      "Ġacc": 494,
      "Ġfile": 495,
      "Ġtoks": 496,
      "Ġ\\\"": 497,
      "ĠNone": 498,
      "dev": 499,
      "null": 500,
      "ree": 501,
      "ĠG": 502,
      "test": 503,
      "old": 504,
      "Ġne": 505,
      "Ġenv": 506,
      "length": 507,
      "Ġsl": 508,
      "ns": 509,
      "line": 510,
      "Ġread": 511,
      "Ġo": 512,
      "ene": 513,
      "Ġjoin": 514,
      ">/": 515,
      "ly": 516,
      "name": 517,
      "Ġse": 518,
      "64": 519,
      "Ġ{": 520,
      "char": 521,
      "..": 522,
      "Ġwith": 523,
      "Ġ(\"": 524,
      "vel": 525,
      "ite": 526,
      "Ġ||": 527,
      "Ġas": 528,
      "\\\\": 529,
      "ĠSome": 530,
      "ime": 531,
      "ves": 532,
      "Ġcon": 533,
      "Ġcons": 534,
      "ycle": 535,
      "append": 536,
      "dat": 537,
      "),": 538,
      "entry": 539,
      "size": 540,
      "Ġon": 541,
      "Ġhar": 542,
      "ĠNode": 543,
      "ce": 544,
      "oal": 545,
      "Ġ\":": 546,
      "Ġla": 547,
      "Ġis": 548,
      "art": 549,
      "Ġldr": 550,
      "Ġparse": 551,
      "font": 552,
      "cho": 553,
      "80": 554,
      "Ġpath": 555,
      "chars": 556,
      "tp": 557,
      "yle": 558,
      "ilter": 559,
      "ml": 560,
      "Leaf": 561,
      "bo": 562,
      "Ġra": 563,
      "tal": 564,
      "ĠH": 565,
      "Ġtrain": 566,
      "heck": 567,
      "ard": 568,
      "Ġadd": 569,
      "sc": 570,
      "list": 571,
      "order": 572,
      "\\\":": 573,
      "ms": 574,
      "Ġbody": 575,
      "De": 576,
      "Ġte": 577,
      "arse": 578,
      "und": 579,
      "ect": 580,
      "ative": 581,
      "ov": 582,
      "Ġresp": 583,
      "odel": 584,
      "Ġsplit": 585,
      "nge": 586,
      "Ġresult": 587,
      "sel": 588,
      "20": 589,
      "ip": 590,
      "Ġret": 591,
      "err": 592,
      "ĠB": 593,
      "Ġlst": 594,
      "Ġ&&": 595,
      "ind": 596,
      "Ġtools": 597,
      "self": 598,
      "cl": 599,
      "Ġout": 600,
      "Ġlo": 601,
      "max": 602,
      "round": 603,
      "Ġappend": 604,
      "var": 605,
      "ure": 606,
      "unction": 607,
      "ase": 608,
      "Ġmov": 609,
      "Ġal": 610,
      "ab": 611,
      "stat": 612,
      "tr": 613,
      "ess": 614,
      "rom": 615,
      "fault": 616,
      "30": 617,
      "Ġit": 618,
      "are": 619,
      "Ġ20": 620,
      "loc": 621,
      "ĠI": 622,
      "Ġ(\\": 623,
      "key": 624,
      "Ġk": 625,
      "back": 626,
      ");": 627,
      "acc": 628,
      "ample": 629,
      "Ġof": 630,
      "mpt": 631,
      "Ġecho": 632,
      "enerate": 633,
      "Ġ=\\": 634,
      "harvest": 635,
      "pl": 636,
      "ation": 637,
      "content": 638,
      "uil": 639,
      "24": 640,
      "Ġu": 641,
      "for": 642,
      "rc": 643,
      "Ġ[]": 644,
      "compile": 645,
      "ash": 646,
      "Ġfrom": 647,
      "',": 648,
      "gen": 649,
      "Ġcmd": 650,
      "time": 651,
      "Ġfold": 652,
      "Ġpass": 653,
      "parse": 654,
      "tra": 655,
      "vested": 656,
      "Ġstyle": 657,
      ".\"": 658,
      "Ġtg": 659,
      "cur": 660,
      "border": 661,
      "Ġtask": 662,
      "ft": 663,
      "host": 664,
      "Ġgap": 665,
      "ĠU": 666,
      "token": 667,
      "Ġline": 668,
      "Ġstring": 669,
      "Default": 670,
      "verse": 671,
      "con": 672,
      "tas": 673,
      "Ġdi": 674,
      "and": 675,
      "Ġht": 676,
      "Or": 677,
      "Ġ\"\\\"": 678,
      "ments": 679,
      ">&": 680,
      "ĠLeaf": 681,
      "11": 682,
      "nmain": 683,
      "apter": 684,
      "bl": 685,
      "32": 686,
      "Ġchar": 687,
      "ress": 688,
      "=\"": 689,
      "qu": 690,
      "rep": 691,
      "getOr": 692,
      ":/": 693,
      "'><": 694,
      "dd": 695,
      "Ġtoken": 696,
      "âĶĢâĶĢâĶĢâĶĢâĶĢâĶĢâĶĢâĶĢâĶĢâĶĢâĶĢâĶĢâĶĢâĶĢâĶĢâĶĢ": 697,
      "Ġexpr": 698,
      "ight": 699,
      "Ġ7": 700,
      "argin": 701,
      "getOrDefault": 702,
      "Ġ6": 703,
      "alse": 704,
      "Ġcur": 705,
      "com": 706,
      "ix": 707,
      "Ġ100": 708,
      "Ġtasks": 709,
      "Ġ>=": 710,
      "ace": 711,
      "cons": 712,
      "ice": 713,
      "Ġbl": 714,
      "Ġjson": 715,
      "AI": 716,
      "))))": 717,
      "ground": 718,
      "ption": 719,
      "count": 720,
      "plo": 721,
      "put": 722,
      "25": 723,
      "tem": 724,
      "Ġgoal": 725,
      "Ġme": 726,
      "Ġprints": 727,
      "Ġ\"</": 728,
      "training": 729,
      "Ġtail": 730,
      "Ġcomp": 731,
      "ract": 732,
      "Ġargs": 733,
      "ĠD": 734,
      "ject": 735,
      "('": 736,
      "ON": 737,
      "per": 738,
      "ds": 739,
      "Ġ~": 740,
      "mpty": 741,
      "ha": 742,
      "100": 743,
      "jsonl": 744,
      "Ġtraining": 745,
      "log": 746,
      "Ġpre": 747,
      "let": 748,
      "error": 749,
      "ĠJ": 750,
      "Ġser": 751,
      "Ġsum": 752,
      "path": 753,
      "Ġnew": 754,
      "zer": 755,
      "Ġ~/": 756,
      "://": 757,
      "nt": 758,
      "Ġcount": 759,
      "ploy": 760,
      "Ġmap": 761,
      "im": 762,
      "ason": 763,
      "Ġpromp": 764,
      "trans": 765,
      "read": 766,
      "cycle": 767,
      "Ġprompt": 768,
      "==": 769,
      "native": 770,
      "Ġlevel": 771,
      "Ġtag": 772,
      "rap": 773,
      "Ġimple": 774,
      "Ġ\":\",": 775,
      "sys": 776,
      "ude": 777,
      "Ġid": 778,
      "port": 779,
      "ER": 780,
      "low": 781,
      "ĠĠĠĠĠĠĠĠ": 782,
      "gap": 783,
      "Pair": 784,
      "act": 785,
      "html": 786,
      "Ġtotal": 787,
      "Ġfilter": 788,
      "vg": 789,
      "Ġ42": 790,
      "Ġvi": 791,
      "Ġimplements": 792,
      ">\",": 793,
      "Node": 794,
      "ust": 795,
      "idth": 796,
      "Ġfunction": 797,
      "Ġ9": 798,
      "Ġcheck": 799,
      "range": 800,
      "Ġharvest": 801,
      "amples": 802,
      "12": 803,
      "Ġus": 804,
      "lay": 805,
      "ute": 806,
      "Ġans": 807,
      "ush": 808,
      "Ġdat": 809,
      "prog": 810,
      "elf": 811,
      "=\\\"": 812,
      "Ġchars": 813,
      "ST": 814,
      "Ġtest": 815,
      "Ġvia": 816,
      "sh": 817,
      "ld": 818,
      "41": 819,
      "(--": 820,
      "Ġ([": 821,
      "Ġnum": 822,
      "run": 823,
      "oub": 824,
      "tag": 825,
      "aram": 826,
      "ec": 827,
      "margin": 828,
      "ouble": 829,
      "40": 830,
      "fle": 831,
      "kPair": 832,
      "lm": 833,
      "jects": 834,
      "tep": 835,
      "ound": 836,
      "expr": 837,
      "oc": 838,
      "agent": 839,
      "ĠOption": 840,
      "Ġlog": 841,
      "args": 842,
      "background": 843,
      "model": 844,
      "Ġget": 845,
      "Ġcompiler": 846,
      "ration": 847,
      "Ġat": 848,
      "Ġ./": 849,
      "projects": 850,
      "Ġ\"#": 851,
      "ledat": 852,
      "laude": 853,
      "Ġkey": 854,
      "Ġdesc": 855,
      "Ġsep": 856,
      "po": 857,
      "ype": 858,
      "bin": 859,
      "ries": 860,
      "SON": 861,
      "own": 862,
      "mo": 863,
      "Ġcol": 864,
      "mar": 865,
      "Ġwh": 866,
      "AIL": 867,
      "ght": 868,
      "cp": 869,
      ">\\": 870,
      "ench": 871,
      "asm": 872,
      "http": 873,
      "âķĲâķĲâķĲ": 874,
      "Ġwor": 875,
      "pec": 876,
      "que": 877,
      "Ġesc": 878,
      "ill": 879,
      "splay": 880,
      "Ġtr": 881,
      "Ġcg": 882,
      "Ġhttp": 883,
      "Ġreverse": 884,
      "')": 885,
      "]))": 886,
      "Ġgenerate": 887,
      "uild": 888,
      "ĠJSON": 889,
      "Ġcall": 890,
      "local": 891,
      "IN": 892,
      "ers": 893,
      "ity": 894,
      "mb": 895,
      "width": 896,
      "set": 897,
      "50": 898,
      "ition": 899,
      "Ġstart": 900,
      "Ġ<=": 901,
      "ne": 902,
      "Ġ8": 903,
      "Ġcontent": 904,
      "Ġfalse": 905,
      "pected": 906,
      "ircle": 907,
      "Ġ$": 908,
      "xtract": 909,
      "Ġno": 910,
      "ait": 911,
      "right": 912,
      "\"],": 913,
      "ĠRe": 914,
      "Ġsrc": 915,
      "42": 916,
      "ref": 917,
      "Ġby": 918,
      "GE": 919,
      "app": 920,
      "ĠâķĲâķĲâķĲâķĲâķĲâķĲâķĲâķĲâķĲâķĲâķĲâķĲâķĲâķĲâķĲâķĲâķĲâķĲâķĲâķĲâķĲâķĲâķĲâķĲâķĲâķĲâķĲâķĲâķĲâķĲâķĲâķĲâķĲâķĲâķĲâķĲâķĲâķĲâķĲâķĲâķĲâķĲâķĲâķĲâķĲâķĲâķĲâķĲâķĲâķĲâķĲâķĲâķĲâķĲâķĲâķĲâķĲâķĲâķĲâķĲâķĲâķĲâķĲâķĲâķĲâķĲâķĲâķĲâķĲâķĲâķĲâķĲâķĲâķĲâķĲâķĲâķĲâķĲâķĲ": 921,
      "loat": 922,
      "Ġmax": 923,
      "ach": 924,
      "form": 925,
      "hello": 926,
      "print": 927,
      "git": 928,
      "Ġ([\"": 929,
      "{\",": 930,
      "Ġhas": 931,
      "Ġback": 932,
      "ĠSt": 933,
      "86": 934,
      "che": 935,
      "sage": 936,
      "},": 937,
      "Ġor": 938,
      "len": 939,
      "num": 940,
      "Ġnext": 941,
      "Ġ\"\\\"\"": 942,
      "sk": 943,
      "eds": 944,
      "Ġopt": 945,
      "role": 946,
      "ave": 947,
      "adding": 948,
      "cls": 949,
      "lines": 950,
      "15": 951,
      "ono": 952,
      "whe": 953,
      "aw": 954,
      "Ġaf": 955,
      "cs": 956,
      "ĠAdd": 957,
      "body": 958,
      "Ġharvested": 959,
      "\\\",": 960,
      "lywhe": 961,
      "lywheel": 962,
      "55": 963,
      "pass": 964,
      "tempt": 965,
      "man": 966,
      "entries": 967,
      "tasks": 968,
      "=\",": 969,
      "AR": 970,
      "lib": 971,
      "22": 972,
      "Ġun": 973,
      "height": 974,
      "\"))": 975,
      "Ġfiles": 976,
      "ning": 977,
      ")}": 978,
      "sl": 979,
      "AT": 980,
      "call": 981,
      "display": 982,
      "los": 983,
      "uto": 984,
      "48": 985,
      "Ġfact": 986,
      "Ġall": 987,
      "bench": 988,
      "we": 989,
      "Ġleft": 990,
      "Ġcycle": 991,
      "level": 992,
      "tokenize": 993,
      "adapter": 994,
      "align": 995,
      "ven": 996,
      "Ġfail": 997,
      "ĠCons": 998,
      "ain": 999,
      "filter": 1000,
      "erge": 1001,
      "Ġexit": 1002,
      "Ġargv": 1003,
      "Ġtrue": 1004,
      "Ġentries": 1005,
      "ĠList": 1006,
      "fail": 1007,
      "tools": 1008,
      "ĠW": 1009,
      "dir": 1010,
      "row": 1011,
      "resp": 1012,
      "PA": 1013,
      "rr": 1014,
      "load": 1015,
      "sers": 1016,
      "ep": 1017,
      "ĨĴ": 1018,
      "pu": 1019,
      "status": 1020,
      "\\\":\\\"": 1021,
      ")\"": 1022,
      "prompt": 1023,
      "yth": 1024,
      "ĠMkPair": 1025,
      "section": 1026,
      "Ġ%": 1027,
      "ial": 1028,
      "comp": 1029,
      "Ġstat": 1030,
      "\"]))": 1031,
      "Ġexamples": 1032,
      "ĠâĨĴ": 1033,
      "ctor": 1034,
      "Ġnot": 1035,
      "our": 1036,
      "enter": 1037,
      "box": 1038,
      "66": 1039,
      "rest": 1040,
      "Ġ\"'": 1041,
      ":'": 1042,
      "Ġele": 1043,
      "ses": 1044,
      ";\"": 1045,
      "Ġparam": 1046,
      "Ġsize": 1047,
      "node": 1048,
      "Ġsvg": 1049,
      "ĠNil": 1050,
      "ĠPair": 1051,
      "server": 1052,
      "able": 1053,
      "fib": 1054,
      "deploy": 1055,
      "Ġmain": 1056,
      "Ġself": 1057,
      "Ġerror": 1058,
      "retrain": 1059,
      "space": 1060,
      "\",\"": 1061,
      ":\",": 1062,
      "br": 1063,
      "sum": 1064,
      "ĠNo": 1065,
      "Ġlast": 1066,
      "Ġldp": 1067,
      "ok": 1068,
      "Ġpair": 1069,
      "ĠTree": 1070,
      "uage": 1071,
      "nguage": 1072,
      "trim": 1073,
      "ĠEmpty": 1074,
      "Ġ#-": 1075,
      "Ġraw": 1076,
      "cd": 1077,
      "Ġ\"_": 1078,
      "rip": 1079,
      "rif": 1080,
      "'>\"": 1081,
      "Ġws": 1082,
      "irst": 1083,
      "14": 1084,
      "onse": 1085,
      "ython": 1086,
      "card": 1087,
      "imp": 1088,
      "Ġdata": 1089,
      "data": 1090,
      "ĠHT": 1091,
      "Ġcom": 1092,
      "Ġare": 1093,
      "Ġ\",\",": 1094,
      "Ġhref": 1095,
      "PAGE": 1096,
      "ader": 1097,
      "Ġj": 1098,
      "ĠV": 1099,
      "Ġ\"\\\\": 1100,
      "Ġserver": 1101,
      "my": 1102,
      "top": 1103,
      "ory": 1104,
      "wor": 1105,
      "aa": 1106,
      "with": 1107,
      "quare": 1108,
      "nl": 1109,
      "Ġreads": 1110,
      "Ġfib": 1111,
      "Ġusing": 1112,
      "bel": 1113,
      "reason": 1114,
      "ou": 1115,
      "sec": 1116,
      "eq": 1117,
      "left": 1118,
      "ages": 1119,
      "radi": 1120,
      "iel": 1121,
      "ian": 1122,
      "match": 1123,
      "PU": 1124,
      "RA": 1125,
      "lect": 1126,
      "sed": 1127,
      "Ġexpected": 1128,
      "Num": 1129,
      "mul": 1130,
      "Ġright": 1131,
      "fold": 1132,
      "27": 1133,
      "LE": 1134,
      "padding": 1135,
      "Ġtree": 1136,
      "bot": 1137,
      "inu": 1138,
      "ary": 1139,
      "tom": 1140,
      "Ġwrites": 1141,
      "Ġdecls": 1142,
      "!\\": 1143,
      "]!\\": 1144,
      "center": 1145,
      "ĠUsage": 1146,
      "nel": 1147,
      "rt": 1148,
      "ena": 1149,
      "Ġmodel": 1150,
      "Ġ}": 1151,
      "start": 1152,
      "curl": 1153,
      "gt": 1154,
      "ze": 1155,
      "Ġsol": 1156,
      "Ġcolor": 1157,
      "none": 1158,
      "transform": 1159,
      "mil": 1160,
      "no": 1161,
      "Ġhe": 1162,
      "Ġadapter": 1163,
      "famil": 1164,
      "task": 1165,
      "family": 1166,
      "digit": 1167,
      "\")))": 1168,
      "Ġnm": 1169,
      "DT": 1170,
      "ĠĠĠĠĠĠĠĠĠ": 1171,
      "am": 1172,
      "sion": 1173,
      "Ġgene": 1174,
      "ls": 1175,
      "Ġrt": 1176,
      "bottom": 1177,
      "Ġch": 1178,
      "Ġ30": 1179,
      "Ġrange": 1180,
      "repair": 1181,
      "Ġtype": 1182,
      "late": 1183,
      "ĠOK": 1184,
      "est": 1185,
      "float": 1186,
      "Ġeach": 1187,
      "EN": 1188,
      "ince": 1189,
      "sert": 1190,
      "da": 1191,
      "goal": 1192,
      "ire": 1193,
      "Ġfname": 1194,
      "Ġfind": 1195,
      "met": 1196,
      "ault": 1197,
      "kw": 1198,
      "Ġentry": 1199,
      "))\\": 1200,
      "RM": 1201,
      "td": 1202,
      "open": 1203,
      "Ġretur": 1204,
      "Ġprev": 1205,
      "date": 1206,
      "Ġup": 1207,
      "unc": 1208,
      "inux": 1209,
      "rat": 1210,
      "ĠARM": 1211,
      "ĠEx": 1212,
      "8080": 1213,
      "wc": 1214,
      "Ġpq": 1215,
      "Ġ@": 1216,
      "ĠClaude": 1217,
      "Ġgenerates": 1218,
      "losure": 1219,
      "AL": 1220,
      "bar": 1221,
      "Ġok": 1222,
      "fst": 1223,
      "av": 1224,
      "ast": 1225,
      "be": 1226,
      "cmd": 1227,
      "ices": 1228,
      "board": 1229,
      "ashboard": 1230,
      "17": 1231,
      "TP": 1232,
      "afe": 1233,
      "fig": 1234,
      "ĠCircle": 1235,
      "write": 1236,
      "Ġ16": 1237,
      "Ġsystem": 1238,
      "33": 1239,
      "LM": 1240,
      "Ġrail": 1241,
      "Ġpid": 1242,
      "kv": 1243,
      "ĠâķĲâķĲâķĲ": 1244,
      "Ġfirst": 1245,
      "ak": 1246,
      "gpu": 1247,
      "Ġafter": 1248,
      "13": 1249,
      "mess": 1250,
      "Ġimp": 1251,
      "...\"": 1252,
      "{\\\"": 1253,
      "Ġsolid": 1254,
      ".</": 1255,
      "Ġlanguage": 1256,
      "iants": 1257,
      "verif": 1258,
      "flex": 1259,
      "90": 1260,
      "!=": 1261,
      "localhost": 1262,
      "Ġsc": 1263,
      "Ġoutput": 1264,
      "aly": 1265,
      "ĠĠĠĠĠĠĠĠĠĠĠ": 1266,
      "Ġ\"/\",": 1267,
      "Ġexist": 1268,
      "ĠLo": 1269,
      "ledatic": 1270,
      "ĠRun": 1271,
      "Ġvalid": 1272,
      "vol": 1273,
      "Ġ\"%": 1274,
      "her": 1275,
      "itle": 1276,
      "double": 1277,
      "mt": 1278,
      "ĠADT": 1279,
      "Ġ\"-": 1280,
      "ded": 1281,
      "Ġdum": 1282,
      "Ġuser": 1283,
      "fleet": 1284,
      "Ġdummy": 1285,
      "bs": 1286,
      "ED": 1287,
      "ify": 1288,
      "ĠLLM": 1289,
      "Ġstep": 1290,
      "Ġarena": 1291,
      "Ġbo": 1292,
      "ĠNO": 1293,
      "ames": 1294,
      "aves": 1295,
      "ies": 1296,
      "mory": 1297,
      "LY": 1298,
      "ret": 1299,
      "You": 1300,
      "ings": 1301,
      "Ġstp": 1302,
      "rop": 1303,
      "Ġdouble": 1304,
      "andle": 1305,
      "cal": 1306,
      "Ġpo": 1307,
      "âĶĢâĶĢâĶĢâĶĢâĶĢâĶĢâĶĢâĶĢâĶĢâĶĢâĶĢâĶĢâĶĢâĶĢâĶĢâĶĢâĶĢâĶĢâĶĢâĶĢâĶĢâĶĢâĶĢâĶĢâĶĢâĶĢâĶĢâĶĢâĶĢâĶĢâĶĢâĶĢ": 1308,
      "pos": 1309,
      "utput": 1310,
      "Ġ\"\\\\\"": 1311,
      "Ġexp": 1312,
      "ĠMul": 1313,
      "radius": 1314,
      "icat": 1315,
      "ql": 1316,
      "wrap": 1317,
      "Ġend": 1318,
      "ĠSquare": 1319,
      "18": 1320,
      "Content": 1321,
      "ker": 1322,
      "temp": 1323,
      "Ġct": 1324,
      "mpire": 1325,
      "area": 1326,
      "Ġattempt": 1327,
      "Ġstatus": 1328,
      "OK": 1329,
      "sub": 1330,
      "Ġstate": 1331,
      "exit": 1332,
      "Ġmet": 1333,
      "harvested": 1334,
      "fn": 1335,
      "Ġ!=": 1336,
      "ĠGPU": 1337,
      "icempire": 1338,
      "cycles": 1339,
      "ledaticempire": 1340,
      "Users": 1341,
      "reen": 1342,
      "Ġ[\"<": 1343,
      "Ġidx": 1344,
      "OM": 1345,
      "progress": 1346,
      "dge": 1347,
      "rid": 1348,
      "ake": 1349,
      "wap": 1350,
      "}\",": 1351,
      "Ġ\"âķ": 1352,
      "dex": 1353,
      "\\\"\"": 1354,
      "%{": 1355,
      "ucc": 1356,
      "Ġnx": 1357,
      "system": 1358,
      "atche": 1359,
      "Ġfix": 1360,
      "===": 1361,
      "Ġcont": 1362,
      "Ġround": 1363,
      "quest": 1364,
      "SS": 1365,
      "url": 1366,
      "Ġinto": 1367,
      "ression": 1368,
      "ication": 1369,
      "Ġreq": 1370,
      "https": 1371,
      "rp": 1372,
      "reverse": 1373,
      "ults": 1374,
      "ped": 1375,
      "python": 1376,
      "style": 1377,
      "\\\"\\": 1378,
      "Ġreason": 1379,
      ")]": 1380,
      "19": 1381,
      "ĠErr": 1382,
      "Ġparams": 1383,
      "cv": 1384,
      "utive": 1385,
      "Ġexec": 1386,
      "secutive": 1387,
      "Ġgen": 1388,
      "Ġgoals": 1389,
      "PI": 1390,
      "min": 1391,
      "Ġcmp": 1392,
      "Ġthis": 1393,
      "alth": 1394,
      "mit": 1395,
      "sing": 1396,
      "Ġ\")": 1397,
      "std": 1398,
      "Ġstack": 1399,
      "ĠCompile": 1400,
      "msg": 1401,
      "ield": 1402,
      "user": 1403,
      "leep": 1404,
      "Ġlocal": 1405,
      "Ġextract": 1406,
      "bool": 1407,
      "awn": 1408,
      "mbda": 1409,
      "Ġpairs": 1410,
      "hod": 1411,
      "label": 1412,
      "ose": 1413,
      "Ġbuild": 1414,
      "fin": 1415,
      "lbl": 1416,
      "lag": 1417,
      "Some": 1418,
      "%;": 1419,
      "){": 1420,
      "vices": 1421,
      "fact": 1422,
      "Ġtime": 1423,
      "ĠRes": 1424,
      "Ġmar": 1425,
      "Ġpush": 1426,
      "Ġsave": 1427,
      "ource": 1428,
      "23": 1429,
      "glow": 1430,
      "kip": 1431,
      "tok": 1432,
      "ba": 1433,
      "llm": 1434,
      "ud": 1435,
      "yn": 1436,
      "Ġma": 1437,
      "idd": 1438,
      "ĠON": 1439,
      "fo": 1440,
      "Ġ[])": 1441,
      "='#": 1442,
      "Ġtext": 1443,
      "messages": 1444,
      "Ġone": 1445,
      "import": 1446,
      "Ġ\"=\"": 1447,
      "Ġtool": 1448,
      "ĠNum": 1449,
      "Ġloop": 1450,
      "ING": 1451,
      "82": 1452,
      "OR": 1453,
      "down": 1454,
      "ob": 1455,
      "Ġverif": 1456,
      "Ġwhite": 1457,
      "red": 1458,
      "Ġbin": 1459,
      "='\",": 1460,
      "acity": 1461,
      "Ġresponse": 1462,
      "fix": 1463,
      "Ġper": 1464,
      "Ġcnt": 1465,
      "atter": 1466,
      "alloc": 1467,
      "ument": 1468,
      "const": 1469,
      "qlite": 1470,
      "nd": 1471,
      ";</": 1472,
      "Ġdeploy": 1473,
      "ates": 1474,
      "ss": 1475,
      "Ġeval": 1476,
      "claude": 1477,
      "Ġfont": 1478,
      "uple": 1479,
      "tokens": 1480,
      "}\"]": 1481,
      "adv": 1482,
      "true": 1483,
      "Ġ\",\"": 1484,
      "Ġconsecutive": 1485,
      "CT": 1486,
      "ML": 1487,
      "OF": 1488,
      "ĠThe": 1489,
      "Ġkv": 1490,
      "Ġtokenize": 1491,
      "Ġ}\\": 1492,
      "ET": 1493,
      "Rail": 1494,
      "false": 1495,
      "Ġtra": 1496,
      "Ġsv": 1497,
      "Ġhtml": 1498,
      "onospace": 1499,
      "Cons": 1500,
      "pi": 1501,
      "tl": 1502,
      "Ġ200": 1503,
      "imation": 1504,
      "Ġllm": 1505,
      "Ġmode": 1506,
      "place": 1507,
      "ĠONLY": 1508,
      "21": 1509,
      "88": 1510,
      "Ġtp": 1511,
      "arch": 1512,
      "ocument": 1513,
      "arget": 1514,
      "variants": 1515,
      "uilt": 1516,
      "Ġexpression": 1517,
      "uct": 1518,
      "Ġsince": 1519,
      "Ġbe": 1520,
      "Ġvault": 1521,
      "Ġag": 1522,
      "rove": 1523,
      "uccess": 1524,
      "auto": 1525,
      "flywheel": 1526,
      "Ġrep": 1527,
      "oll": 1528,
      "ant": 1529,
      "loop": 1530,
      "Ġvar": 1531,
      "etwe": 1532,
      "etween": 1533,
      "opacity": 1534,
      "'>&": 1535,
      "ĠTest": 1536,
      "etal": 1537,
      "Ġload": 1538,
      "check": 1539,
      "fg": 1540,
      "Ġurl": 1541,
      "pa": 1542,
      "Ġ\"]": 1543,
      "ick": 1544,
      "Ġcompute": 1545,
      "Qw": 1546,
      "Ġys": 1547,
      "encode": 1548,
      ")))))": 1549,
      "Ġopen": 1550,
      "ĠHTTP": 1551,
      "ĠLoRA": 1552,
      "Qwen": 1553,
      "60": 1554,
      "Ġpop": 1555,
      "Ġseeds": 1556,
      "ĠHar": 1557,
      "plan": 1558,
      "Ġusr": 1559,
      "Tree": 1560,
      "Ġresults": 1561,
      "nav": 1562,
      "Ġ===\"": 1563,
      "Ġnumb": 1564,
      "ele": 1565,
      "tc": 1566,
      "ink": 1567,
      "Ġ17": 1568,
      "ĠML": 1569,
      "enc": 1570,
      "99": 1571,
      "Ġcompiles": 1572,
      "').": 1573,
      "Ġrate": 1574,
      "Ġsh": 1575,
      "By": 1576,
      "lose": 1577,
      "plication": 1578,
      "zero": 1579,
      "Type": 1580,
      "Ġob": 1581,
      ").": 1582,
      "97": 1583,
      "ual": 1584,
      "Ġps": 1585,
      "mem": 1586,
      "Ġtot": 1587,
      "Ġdo": 1588,
      "Ġprograms": 1589,
      "reg": 1590,
      "orts": 1591,
      "Ġuse": 1592,
      "vent": 1593,
      "mark": 1594,
      "tree": 1595,
      "wasm": 1596,
      "...": 1597,
      "OFF": 1598,
      "DO": 1599,
      "EW": 1600,
      "uard": 1601,
      "Ġ\"&": 1602,
      "Ġmerge": 1603,
      "Ġgeneration": 1604,
      "Ġmark": 1605,
      "Ġ\"--": 1606,
      "alive": 1607,
      "Ġproc": 1608,
      "ĠMetal": 1609,
      ">\"]": 1610,
      "36": 1611,
      "Ġlen": 1612,
      "ply": 1613,
      "adow": 1614,
      "Ġvalue": 1615,
      "raph": 1616,
      "position": 1617,
      "LD": 1618,
      "db": 1619,
      "mat": 1620,
      "Ġadv": 1621,
      "grid": 1622,
      "li": 1623,
      "monospace": 1624,
      "Ġwork": 1625,
      "cks": 1626,
      "orted": 1627,
      "ĠOutput": 1628,
      "Ġcomman": 1629,
      "ync": 1630,
      "\\\">": 1631,
      "ĠLe": 1632,
      "skip": 1633,
      "cg": 1634,
      "lx": 1635,
      "Ġlsl": 1636,
      "Ġ[\"\\": 1637,
      "ures": 1638,
      "Ġcontext": 1639,
      "IC": 1640,
      "Ġ(_": 1641,
      "peat": 1642,
      "ipel": 1643,
      "hape": 1644,
      "param": 1645,
      "rect": 1646,
      "Ġonly": 1647,
      "shadow": 1648,
      "ains": 1649,
      "26": 1650,
      "])))": 1651,
      "ges": 1652,
      "ĠĠĠĠĠĠ": 1653,
      "Ġtests": 1654,
      "'\")": 1655,
      "safe": 1656,
      "ues": 1657,
      "ĠCheck": 1658,
      "step": 1659,
      "Ġ13": 1660,
      "Ġ#\",": 1661,
      "ini": 1662,
      "ence": 1663,
      "Ġ(_,": 1664,
      "merge": 1665,
      "src": 1666,
      "Ġ\"},": 1667,
      "ĠStr": 1668,
      "Ġprogress": 1669,
      "ĠMono": 1670,
      "Ġwhitelist": 1671,
      "RAIL": 1672,
      "ique": 1673,
      "rint": 1674,
      "Ġsub": 1675,
      "Ġnative": 1676,
      "home": 1677,
      "very": 1678,
      "PAGEOFF": 1679,
      "document": 1680,
      "Ġ\"{\",": 1681,
      "string": 1682,
      "ĠMLX": 1683,
      ":\"": 1684,
      "_\",": 1685,
      "ĠOk": 1686,
      "insert": 1687,
      "Ġpro": 1688,
      "Ġfunc": 1689,
      "cket": 1690,
      "','": 1691,
      "Ġcurl": 1692,
      "Ġmemory": 1693,
      "Ġ\"-\"": 1694,
      "ll": 1695,
      "nb": 1696,
      "nown": 1697,
      "Ġhandle": 1698,
      "ĠUse": 1699,
      "ES": 1700,
      "NT": 1701,
      "title": 1702,
      "ĠĊ": 1703,
      "Ġsource": 1704,
      "Ġ\"/\"": 1705,
      "ĠParse": 1706,
      "\\\",\\\"": 1707,
      "44": 1708,
      "yte": 1709,
      "Ġ\"*": 1710,
      "init": 1711,
      "Ġms": 1712,
      "Ġ(\"\",": 1713,
      "Ġmethod": 1714,
      "Ġ(\",": 1715,
      "Ġtry": 1716,
      "Ġbase": 1717,
      "Ġstop": 1718,
      "200": 1719,
      "azer": 1720,
      "lete": 1721,
      "seeds": 1722,
      "Ġro": 1723,
      "new": 1724,
      "function": 1725,
      "Ġapplication": 1726,
      "ĠResult": 1727,
      "co": 1728,
      "Ġ25": 1729,
      "ters": 1730,
      "weight": 1731,
      "666": 1732,
      "digits": 1733,
      "Ġ\"[": 1734,
      "Ġskip": 1735,
      "metal": 1736,
      "acing": 1737,
      "Ġ40": 1738,
      "')\\": 1739,
      "io": 1740,
      "wo": 1741,
      "Ġflywheel": 1742,
      "animation": 1743,
      "Ġitself": 1744,
      "Ġgaps": 1745,
      "volve": 1746,
      "ext": 1747,
      "teg": 1748,
      "heap": 1749,
      "about": 1750,
      "program": 1751,
      "zemo": 1752,
      "iv": 1753,
      "tic": 1754,
      "ĠCon": 1755,
      "lan": 1756,
      "fiber": 1757,
      "just": 1758,
      "ug": 1759,
      "ong": 1760,
      "Ġnames": 1761,
      "tool": 1762,
      "Ġconver": 1763,
      "mlx": 1764,
      "Ġadrp": 1765,
      "models": 1766,
      "rammar": 1767,
      "Ġdef": 1768,
      "MkPair": 1769,
      "swap": 1770,
      "uth": 1771,
      "attempt": 1772,
      "Ġbind": 1773,
      "unch": 1774,
      "Ġmargin": 1775,
      "gest": 1776,
      "gaps": 1777,
      "VE": 1778,
      "linux": 1779,
      "midd": 1780,
      "Ġ:": 1781,
      "Ġ\"}": 1782,
      "Ġrecur": 1783,
      "Ġrdi": 1784,
      "Ġfa": 1785,
      "Ġvalues": 1786,
      "Ġuses": 1787,
      "Ġcalls": 1788,
      "cont": 1789,
      "rent": 1790,
      "semb": 1791,
      "ĠĠĠĠĊ": 1792,
      "sleep": 1793,
      "rated": 1794,
      ");\"": 1795,
      "blue": 1796,
      "dr": 1797,
      "hs": 1798,
      "tOK": 1799,
      "Ġfree": 1800,
      "Ġwtc": 1801,
      "iled": 1802,
      "opt": 1803,
      "translate": 1804,
      "nbsp": 1805,
      "((": 1806,
      "Add": 1807,
      "between": 1808,
      "Ġche": 1809,
      "desc": 1810,
      "lock": 1811,
      "Ġruns": 1812,
      "Ġask": 1813,
      "Ġtemp": 1814,
      "ĠLevel": 1815,
      "UT": 1816,
      "closure": 1817,
      "Ġ\"===": 1818,
      "Ġpatter": 1819,
      "stop": 1820,
      "mote": 1821,
      "Ġsvc": 1822,
      "Ele": 1823,
      "spacing": 1824,
      "ctl": 1825,
      "28": 1826,
      "generate": 1827,
      "raw": 1828,
      "hes": 1829,
      "aders": 1830,
      "List": 1831,
      "Ġ11": 1832,
      "Ġ[\"{\",": 1833,
      "await": 1834,
      "uiltin": 1835,
      "Ġchecks": 1836,
      ".\"]": 1837,
      "Brain": 1838,
      "Jet": 1839,
      "ross": 1840,
      "('/": 1841,
      "ĠExpr": 1842,
      "Ġbinary": 1843,
      "ipeline": 1844,
      "Brains": 1845,
      "JetBrains": 1846,
      "mk": 1847,
      "index": 1848,
      "hover": 1849,
      "Ġreplace": 1850,
      "chat": 1851,
      "Ġ>>": 1852,
      "##": 1853,
      "ide": 1854,
      "ĠWrite": 1855,
      "Ġauto": 1856,
      "âĶģ": 1857,
      "ĠSelf": 1858,
      "Ġdb": 1859,
      "goals": 1860,
      "OST": 1861,
      "push": 1862,
      "Ġlib": 1863,
      "health": 1864,
      "aps": 1865,
      "foo": 1866,
      "pipe": 1867,
      "byte": 1868,
      "find": 1869,
      "svg": 1870,
      "Ġgrep": 1871,
      "ĠTo": 1872,
      "Ġreturn": 1873,
      "Id": 1874,
      "bit": 1875,
      "gba": 1876,
      "req": 1877,
      "odu": 1878,
      "Ġformat": 1879,
      "ĠEdge": 1880,
      "factor": 1881,
      "@@": 1882,
      "fmt": 1883,
      "lat": 1884,
      "ĠâĶĢâĶĢ": 1885,
      "Ġcfg": 1886,
      "Ġ@@": 1887,
      "âĶģâĶģ": 1888,
      "Ġ\"\")": 1889,
      "Ġpa": 1890,
      "Ġ15": 1891,
      "Ġdec": 1892,
      "site": 1893,
      "leet": 1894,
      "ions": 1895,
      "api": 1896,
      "Ġcond": 1897,
      "ĠHTML": 1898,
      "rator": 1899,
      "Ġmsg": 1900,
      "65": 1901,
      "Ġfloat": 1902,
      "Ġrow": 1903,
      "serve": 1904,
      "colum": 1905,
      "runtime": 1906,
      "case": 1907,
      "pid": 1908,
      "pha": 1909,
      "success": 1910,
      "take": 1911,
      "Ġwpe": 1912,
      "ĠRazer": 1913,
      "ner": 1914,
      "pre": 1915,
      "Ġ80": 1916,
      "Ġhost": 1917,
      "leaves": 1918,
      "Ġstd": 1919,
      "Ġfunctions": 1920,
      "Ġjstr": 1921,
      "alyze": 1922,
      "done": 1923,
      "Ġnow": 1924,
      "Ġhi": 1925,
      "ĠIn": 1926,
      ",\\\"": 1927,
      "37": 1928,
      "drop": 1929,
      "ew": 1930,
      "ple": 1931,
      "Ġtarget": 1932,
      "Ġ_)": 1933,
      "result": 1934,
      "ĠFAIL": 1935,
      "Ġalive": 1936,
      ")\"])": 1937,
      ".\\": 1938,
      "63": 1939,
      "Ġ\"+": 1940,
      "Ġsorted": 1941,
      "ĠShape": 1942,
      "Ġforge": 1943,
      "?\"": 1944,
      "cmp": 1945,
      "echo": 1946,
      "Ġtxt": 1947,
      "Ġarms": 1948,
      "last": 1949,
      "ĠPush": 1950,
      "ĠGenerate": 1951,
      "items": 1952,
      "Ġreturns": 1953,
      "ten": 1954,
      "rame": 1955,
      "Ġsteps": 1956,
      "96": 1957,
      "extract": 1958,
      "vi": 1959,
      "yes": 1960,
      "ĠK": 1961,
      "Ġtc": 1962,
      "Ġsqlite": 1963,
      "Ġcoun": 1964,
      "Ġover": 1965,
      "ractice": 1966,
      "vents": 1967,
      "Element": 1968,
      "``": 1969,
      "dges": 1970,
      "Ġ:\",": 1971,
      "Ġits": 1972,
      "Ġwct": 1973,
      "Ġedges": 1974,
      "off": 1975,
      "âķĲâķĲâķĲâķĲâķĲâķĲâķĲâķĲâķĲâķĲâķĲâķĲâķĲâķĲâķĲâķĲâķĲâķĲâķĲâķĲâķĲâķĲâķĲâķĲâķĲâķĲâķĲâķĲâķĲâķĲâķĲâķĲâķĲâķĲâķĲâķĲâķĲâķĲâķĲâķĲâķĲâķĲâķĲâķĲâķĲâķĲâķĲâķĲ": 1976,
      "'>\",": 1977,
      "Ġrunning": 1978,
      "Ġnodes": 1979,
      "Ġclosure": 1980,
      "ery": 1981,
      "Ġmk": 1982,
      "ĠSub": 1983,
      "Ġconfig": 1984,
      "Ġverify": 1985,
      "::": 1986,
      "[\",": 1987,
      "Ġ\"|": 1988,
      "Ġsend": 1989,
      "Ġaw": 1990,
      "Ġ101": 1991,
      "255": 1992,
      "Ġreasoning": 1993,
      "NEW": 1994,
      "][": 1995,
      "nil": 1996,
      "---": 1997,
      "examples": 1998,
      "stats": 1999,
      "Ġorr": 2000,
      "Ġimprove": 2001,
      "Mul": 2002,
      "gith": 2003,
      "grep": 2004,
      "Ġ|>": 2005,
      "Ġmul": 2006,
      "github": 2007,
      "'s": 2008,
      "known": 2009,
      "mis": 2010,
      "ĠDe": 2011,
      "state": 2012,
      "Ġprop": 2013,
      "org": 2014,
      "istant": 2015,
      "transition": 2016,
      "ript": 2017,
      "Ġ\"\\\\\\\"\"": 2018,
      "factorial": 2019,
      "bra": 2020,
      "dashboard": 2021,
      "eed": 2022,
      "Ġ\"\",": 2023,
      "total": 2024,
      "Ġ60": 2025,
      "kernel": 2026,
      "\"))))": 2027,
      "spawn": 2028,
      "Ġdashboard": 2029,
      "Ġdiff": 2030,
      "Ġcontains": 2031,
      "deg": 2032,
      "Ġwait": 2033,
      "Ġnth": 2034,
      "lambda": 2035,
      "Ġworld": 2036,
      "ĠHarvest": 2037,
      "Fix": 2038,
      "PE": 2039,
      "Ġman": 2040,
      "arm": 2041,
      "Ġborder": 2042,
      "Ġrl": 2043,
      "getElement": 2044,
      "ĠOp": 2045,
      "ById": 2046,
      "getElementById": 2047,
      "ay": 2048,
      "pop": 2049,
      "Ġinteg": 2050,
      "dash": 2051,
      "Ġ\">\"": 2052,
      "ested": 2053,
      "AIN": 2054,
      "45": 2055,
      "bp": 2056,
      "eval": 2057,
      "green": 2058,
      "Ġcha": 2059,
      "razer": 2060,
      "arrow": 2061,
      "Ġmin": 2062,
      "ĠSer": 2063,
      "ĠHe": 2064,
      "justify": 2065,
      "HT": 2066,
      "even": 2067,
      "Ġpure": 2068,
      "ras": 2069,
      "arge": 2070,
      "Ġretrain": 2071,
      ":%": 2072,
      "To": 2073,
      "ask": 2074,
      "ription": 2075,
      "example": 2076,
      "Ġcollect": 2077,
      "Ġagent": 2078,
      "ces": 2079,
      "ek": 2080,
      "rol": 2081,
      "Ġeven": 2082,
      "Ġhash": 2083,
      "meta": 2084,
      "/^": 2085,
      "Circle": 2086,
      "not": 2087,
      "Ġcan": 2088,
      "Ġfill": 2089,
      "Ġ21": 2090,
      "Ġstmt": 2091,
      "Ġthem": 2092,
      "ĠFunction": 2093,
      "Ġnums": 2094,
      "adapters": 2095,
      "Ġexisting": 2096,
      "middot": 2097,
      "AS": 2098,
      "empty": 2099,
      "imple": 2100,
      "Ġpage": 2101,
      "reset": 2102,
      "arts": 2103,
      "END": 2104,
      "+--": 2105,
      "120": 2106,
      "fill": 2107,
      "over": 2108,
      "Ġact": 2109,
      "Ġtok": 2110,
      "finite": 2111,
      "Ġobj": 2112,
      ";}\"": 2113,
      "Usage": 2114,
      "ynt": 2115,
      "lean": 2116,
      "Ġ\":\\": 2117,
      "Ġmult": 2118,
      "loud": 2119,
      "idx": 2120,
      "ĠPro": 2121,
      "post": 2122,
      "Ġbackground": 2123,
      "Ġerrors": 2124,
      "band": 2125,
      "dim": 2126,
      "terf": 2127,
      "Ġinc": 2128,
      "ibl": 2129,
      "Ġcurrent": 2130,
      "Ġserve": 2131,
      "ĠRead": 2132,
      "555": 2133,
      "Ġprocess": 2134,
      "ROR": 2135,
      "base": 2136,
      "ting": 2137,
      "Ġwasm": 2138,
      "67": 2139,
      "Ġ\"@": 2140,
      "uld": 2141,
      "sembly": 2142,
      ")])": 2143,
      "fr": 2144,
      "his": 2145,
      "ler": 2146,
      "Ġledat": 2147,
      "Ġruntime": 2148,
      "tions": 2149,
      "Ġbyte": 2150,
      "ĠString": 2151,
      "unchctl": 2152,
      "Ġfailed": 2153,
      "Ġledatic": 2154,
      "UN": 2155,
      "]\",": 2156,
      "yield": 2157,
      "ĠâĶĢâĶĢâĶĢâĶĢâĶĢâĶĢâĶĢâĶĢâĶĢâĶĢâĶĢâĶĢâĶĢâĶĢâĶĢâĶĢâĶĢâĶĢâĶĢâĶĢâĶĢâĶĢâĶĢâĶĢâĶĢâĶĢâĶĢâĶĢâĶĢâĶĢâĶĢâĶĢ": 2158,
      "led": 2159,
      "lex": 2160,
      "Ġpas": 2161,
      "aces": 2162,
      "strong": 2163,
      "exec": 2164,
      "Ġope": 2165,
      ")}\",": 2166,
      "word": 2167,
      "Ġnumber": 2168,
      "316": 2169,
      "em": 2170,
      "func": 2171,
      "nect": 2172,
      "Ġ\">": 2173,
      "Ġ(\\\\": 2174,
      "rew": 2175,
      "alys": 2176,
      "value": 2177,
      "Ġprefix": 2178,
      "Ġelement": 2179,
      "ndom": 2180,
      "params": 2181,
      "alysis": 2182,
      "DE": 2183,
      "class": 2184,
      "flag": 2185,
      "inks": 2186,
      "Ġfixed": 2187,
      "()": 2188,
      "uff": 2189,
      "}'": 2190,
      "Ġold": 2191,
      "Ġ8080": 2192,
      "Ġ12": 2193,
      "ged": 2194,
      "pect": 2195,
      "apt": 2196,
      "ĠCode": 2197,
      "letter": 2198,
      ".\",": 2199,
      "gm": 2200,
      "Ġ\\\\": 2201,
      "roke": 2202,
      "000": 2203,
      "ident": 2204,
      "97316": 2205,
      "bad": 2206,
      "inc": 2207,
      "Ġari": 2208,
      "orial": 2209,
      "Ġ50": 2210,
      "Ġmetal": 2211,
      "35": 2212,
      "mode": 2213,
      "Ġ},": 2214,
      "Ġpi": 2215,
      "onit": 2216,
      "Ġflag": 2217,
      "hed": 2218,
      "asc": 2219,
      "Ġrec": 2220,
      "Ġrr": 2221,
      "onitor": 2222,
      "=(": 2223,
      "SER": 2224,
      "amp": 2225,
      "vice": 2226,
      "decls": 2227,
      "spatch": 2228,
      "ĠAST": 2229,
      "Ġdisk": 2230,
      "Ġtokens": 2231,
      "Ġfiber": 2232,
      "70": 2233,
      ";&": 2234,
      "lic": 2235,
      "Ġwe": 2236,
      "spec": 2237,
      "\\\">\",": 2238,
      "litch": 2239,
      "ization": 2240,
      "other": 2241,
      "Ġrax": 2242,
      "',\\": 2243,
      "cond": 2244,
      "binop": 2245,
      "Ġelements": 2246,
      "Ġ\"+\"": 2247,
      "iblings": 2248,
      "Ġpassed": 2249,
      "specs": 2250,
      "In": 2251,
      "pt": 2252,
      "Ġll": 2253,
      "Ġrequest": 2254,
      "ower": 2255,
      "Ġpadding": 2256,
      "tems": 2257,
      "als": 2258,
      "ĠLa": 2259,
      "ĠPrint": 2260,
      "Ġpoint": 2261,
      "/_": 2262,
      ";\\": 2263,
      "FAIL": 2264,
      "close": 2265,
      "Ġhel": 2266,
      "Ġqu": 2267,
      "template": 2268,
      "+'": 2269,
      "Lgm": 2270,
      "ODE": 2271,
      "builtin": 2272,
      "das": 2273,
      "Ġcp": 2274,
      "olor": 2275,
      "Ġstroke": 2276,
      "assistant": 2277,
      "101": 2278,
      "Ġ\\\"/": 2279,
      "Ġservices": 2280,
      "Ġunique": 2281,
      "dedup": 2282,
      "Ġrepair": 2283,
      "600": 2284,
      "FI": 2285,
      "Ġ\"(": 2286,
      "Ġpe": 2287,
      "Ġcras": 2288,
      "Ġclean": 2289,
      "Ġnc": 2290,
      "Ġexper": 2291,
      "resho": 2292,
      "ĠDone": 2293,
      "Ġ~/.": 2294,
      "comple": 2295,
      "Ġexpert": 2296,
      "++": 2297,
      "ied": 2298,
      "Ġgrammar": 2299,
      "Ġinsert": 2300,
      "upper": 2301,
      "ĠGet": 2302,
      "Ġwords": 2303,
      "stdout": 2304,
      "ich": 2305,
      "practice": 2306,
      "wa": 2307,
      "Ġxp": 2308,
      "Ġls": 2309,
      "Ġlite": 2310,
      "urple": 2311,
      "allib": 2312,
      "config": 2313,
      "ĠFunctions": 2314,
      "asciz": 2315,
      "Ġlitera": 2316,
      "âķĳ": 2317,
      "rarr": 2318,
      "Ġmlx": 2319,
      "ffect": 2320,
      "Ġrazer": 2321,
      "gence": 2322,
      "atched": 2323,
      "Ġcomputes": 2324,
      "badge": 2325,
      "brew": 2326,
      "nC": 2327,
      "rm": 2328,
      "Ġplan": 2329,
      "ĠStart": 2330,
      "Ġfactorial": 2331,
      "homebrew": 2332,
      "Ġ\"*\"": 2333,
      "-%": 2334,
      "St": 2335,
      "fer": 2336,
      "Ġ24": 2337,
      "Ġguard": 2338,
      "Ġtwo": 2339,
      "Ġque": 2340,
      "Ġspawn": 2341,
      "Ġlabel": 2342,
      "Ġfunctional": 2343,
      "compil": 2344,
      "Ġexecute": 2345,
      "()\\": 2346,
      "build": 2347,
      "fw": 2348,
      "alpha": 2349,
      "Ġpred": 2350,
      "rations": 2351,
      "Ġ\"%\"": 2352,
      "Ġcommands": 2353,
      "Ġrecursion": 2354,
      "400": 2355,
      "YPE": 2356,
      "Ġ\\": 2357,
      "Ġhello": 2358,
      "stra": 2359,
      "Ġreg": 2360,
      "Ġhdr": 2361,
      "raining": 2362,
      "Ġarm": 2363,
      "ĠAn": 2364,
      "valid": 2365,
      "Ġesca": 2366,
      "ĠJSONL": 2367,
      "response": 2368,
      "CTYPE": 2369,
      "DOCTYPE": 2370,
      "Ġcrashes": 2371,
      "eof": 2372,
      "Ġbuil": 2373,
      "Ġrc": 2374,
      "cataly": 2375,
      "collect": 2376,
      "ĠIO": 2377,
      "ĠMini": 2378,
      "ctions": 2379,
      "hosting": 2380,
      "ĠStat": 2381,
      "compose": 2382,
      "08": 2383,
      "purple": 2384,
      "ĠQ": 2385,
      "Ġâķĳ": 2386,
      "Ġtable": 2387,
      "Ġcv": 2388,
      "then": 2389,
      "Ġext": 2390,
      "perl": 2391,
      "\\\":\\\"\",": 2392,
      "Ġ\"âķĳ": 2393,
      "ĠError": 2394,
      "Ġawk": 2395,
      "bracket": 2396,
      "Ġâķĳ\"": 2397,
      "qrt": 2398,
      "Ġfull": 2399,
      "Ġrev": 2400,
      "ingle": 2401,
      "ĠRE": 2402,
      "Ġ'{": 2403,
      "core": 2404,
      "kill": 2405,
      "since": 2406,
      "Ġz": 2407,
      "Ġsn": 2408,
      "Ġstore": 2409,
      "odd": 2410,
      "39": 2411,
      "Re": 2412,
      "lt": 2413,
      "page": 2414,
      "Ġgt": 2415,
      "ĠCSS": 2416,
      "clean": 2417,
      "ards": 2418,
      ")}\"": 2419,
      "âķĹ": 2420,
      "ray": 2421,
      "Ġfargs": 2422,
      "\\\"><": 2423,
      "ulse": 2424,
      "istry": 2425,
      "Ġanalysis": 2426,
      "ĠPOST": 2427,
      "Ġcodegen": 2428,
      "ĠGraph": 2429,
      "abs": 2430,
      "Ġstrings": 2431,
      "ĠĠĠĠĠĠĠĠĠĠĠĠĠĠĠĠ": 2432,
      "work": 2433,
      "ima": 2434,
      "Ġ\"]\\": 2435,
      "Ġpatch": 2436,
      "ctx": 2437,
      "\\\\\\\"": 2438,
      "plore": 2439,
      "printf": 2440,
      "csv": 2441,
      "ields": 2442,
      "completions": 2443,
      "Ġescaped": 2444,
      "31": 2445,
      "57": 2446,
      "ASS": 2447,
      "lease": 2448,
      "Ġtitle": 2449,
      "strip": 2450,
      "aren": 2451,
      "ĠExtract": 2452,
      "Ġheaders": 2453,
      "':": 2454,
      "';": 2455,
      "/\",": 2456,
      "try": 2457,
      "Ġerr": 2458,
      "Ġcd": 2459,
      "deco": 2460,
      "launchctl": 2461,
      "Ġ...": 2462,
      "Ġretry": 2463,
      "ĠsumTree": 2464,
      "decoration": 2465,
      "';\"": 2466,
      "]\"": 2467,
      "bind": 2468,
      "ced": 2469,
      "nE": 2470,
      "patched": 2471,
      "rut": 2472,
      "use": 2473,
      "Ġmp": 2474,
      "reak": 2475,
      "Ġcut": 2476,
      "hould": 2477,
      "make": 2478,
      "Ġrbp": 2479,
      "rames": 2480,
      "hart": 2481,
      "Ġmodels": 2482,
      "OMPI": 2483,
      "Ġbefore": 2484,
      "(-": 2485,
      "Time": 2486,
      "fv": 2487,
      "nO": 2488,
      "ĠFor": 2489,
      "tests": 2490,
      "ĠVar": 2491,
      "Ġ\")\"]": 2492,
      "footer": 2493,
      "ASM": 2494,
      "Str": 2495,
      "ptr": 2496,
      "Ġ\"{": 2497,
      "request": 2498,
      "Ġfound": 2499,
      "Ġfleet": 2500,
      "Ġ14": 2501,
      "allback": 2502,
      "stdlib": 2503,
      "lp": 2504,
      "names": 2505,
      "orange": 2506,
      "annel": 2507,
      "Ġ**": 2508,
      "Ġmem": 2509,
      "ĠState": 2510,
      "ĠNOT": 2511,
      "terfall": 2512,
      "())": 2513,
      "LI": 2514,
      "RE": 2515,
      "evolve": 2516,
      "frames": 2517,
      "ost": 2518,
      "Ġsiblings": 2519,
      "search": 2520,
      "Ġprodu": 2521,
      "Ġbrain": 2522,
      "Ġmonitor": 2523,
      "services": 2524,
      "Ġlists": 2525,
      "Ġseen": 2526,
      "keyframes": 2527,
      "repare": 2528,
      "Ġwhat": 2529,
      "Ġmarkdown": 2530,
      "Ġ\"},\",": 2531,
      "Ġroot": 2532,
      "batch": 2533,
      "Ġ\"!": 2534,
      "repeat": 2535,
      "Ġ[(": 2536,
      "Ġindex": 2537,
      "agno": 2538,
      "Ġparses": 2539,
      "Ġsplits": 2540,
      "Ġscore": 2541,
      "Ġsaved": 2542,
      "Ġdoes": 2543,
      "control": 2544,
      "49": 2545,
      "RO": 2546,
      "but": 2547,
      "block": 2548,
      "iven": 2549,
      "Ġown": 2550,
      "Ġlr": 2551,
      "Ġreport": 2552,
      "files": 2553,
      "ĠAPI": 2554,
      "Ġ'\",": 2555,
      "Ġcomplete": 2556,
      "okup": 2557,
      "Ġboth": 2558,
      "Ġhelper": 2559,
      "RAIN": 2560,
      "dbl": 2561,
      "flow": 2562,
      "Ġdiv": 2563,
      "Ġ\"=": 2564,
      "Ġfd": 2565,
      "Ġwidth": 2566,
      "struct": 2567,
      "ĠINT": 2568,
      "uples": 2569,
      "'/": 2570,
      "Color": 2571,
      "dup": 2572,
      "les": 2573,
      "Ġlex": 2574,
      "Ġsed": 2575,
      "Ġbound": 2576,
      "Ġ32": 2577,
      "Ġexplan": 2578,
      "Ġasst": 2579,
      "apps": 2580,
      "rowth": 2581,
      "333": 2582,
      "Ġscrut": 2583,
      "Ġtrans": 2584,
      "Ġmerged": 2585,
      "âķĹ\"": 2586,
      "Ġexplanation": 2587,
      "The": 2588,
      "Ġ\"\\\\\\\\\"": 2589,
      ")))\\": 2590,
      "Ġdist": 2591,
      "mkdir": 2592,
      "oid": 2593,
      "users": 2594,
      "release": 2595,
      "Ġ[[": 2596,
      "ans": 2597,
      "expected": 2598,
      "Ġapply": 2599,
      "ready": 2600,
      "obj": 2601,
      "LIN": 2602,
      "ax": 2603,
      "Ġ\"{\\\"": 2604,
      "Ġsimple": 2605,
      "ran": 2606,
      "ather": 2607,
      "Ġnested": 2608,
      "Ġasm": 2609,
      "cept": 2610,
      "ĠBuild": 2611,
      "ĠĠĠĠĠĠĠĠĠĠ": 2612,
      "atches": 2613,
      "mission": 2614,
      "**": 2615,
      "OO": 2616,
      "jk": 2617,
      "stack": 2618,
      "Ġwri": 2619,
      "boot": 2620,
      "query": 2621,
      "Ġdescription": 2622,
      "HTTP": 2623,
      "Ġ}\"": 2624,
      "Ġssh": 2625,
      "ities": 2626,
      "ĠAI": 2627,
      "ĠMk": 2628,
      "proc": 2629,
      "Ġrespon": 2630,
      "sumTree": 2631,
      "Ġbuilds": 2632,
      "cul": 2633,
      "du": 2634,
      "sv": 2635,
      "ton": 2636,
      "Ġsort": 2637,
      "Ġflat": 2638,
      "Ġgpu": 2639,
      "Ġ37": 2640,
      "Ġexpect": 2641,
      "ĠLinux": 2642,
      "Ġ\"<!": 2643,
      "ĠPASS": 2644,
      "after": 2645,
      "ally": 2646,
      "ERROR": 2647,
      "Ġmake": 2648,
      "Ġnumbers": 2649,
      "Ġcommand": 2650,
      "Timeout": 2651,
      "button": 2652,
      ",\\": 2653,
      "sor": 2654,
      "Ġsafe": 2655,
      "Ġ\"<\"": 2656,
      "etch": 2657,
      "aset": 2658,
      "ĠInt": 2659,
      "context": 2660,
      "Ġwhich": 2661,
      "jkstra": 2662,
      "CODE": 2663,
      "GV": 2664,
      "].": 2665,
      "ding": 2666,
      "events": 2667,
      "guard": 2668,
      "links": 2669,
      "Ġshould": 2670,
      "Ġfeed": 2671,
      "dein": 2672,
      "alarm": 2673,
      "Ġwad": 2674,
      "ernel": 2675,
      "Ġempty": 2676,
      "Ġeffect": 2677,
      "ĠRAIL": 2678,
      "Ġinfinite": 2679,
      "Ġ'#": 2680,
      "keep": 2681,
      "Ġassembly": 2682,
      "locs": 2683,
      "ĠIf": 2684,
      "Ġkernel": 2685,
      "ARGV": 2686,
      "Ġ\"âķĶ": 2687,
      "Ġ\"},{\",": 2688,
      "RAILCODE": 2689,
      "Ġpattern": 2690,
      "âķĲâķĲâķĲâķĲâķĲâķĲâķĲâķĲâķĲâķĲâķĲâķĲâķĲâķĲâķĲâķĲâķĲâķĲâķĲâķĲâķĲâķĲâķĲâķĲâķĲâķĲâķĲâķĲâķĲâķĲâķĲâķĲâķĲâķĲâķĲâķĲâķĲâķĲâķĲâķĲâķĲâķĲâķĲâķĲâķĲâķĲâķĲâķĲâķĲâķĲâķĲâķĲâķĲâķĲ": 2691,
      "Compile": 2692,
      "has": 2693,
      "nore": 2694,
      "sqlite": 2695,
      "strap": 2696,
      "header": 2697,
      "dijkstra": 2698,
      "ined": 2699,
      "clus": 2700,
      "fixed": 2701,
      "Count": 2702,
      "IM": 2703,
      "PL": 2704,
      "aut": 2705,
      "cm": 2706,
      "now": 2707,
      "Ġsleep": 2708,
      "Ġfv": 2709,
      "Ġfield": 2710,
      "Ġlv": 2711,
      "Ġinter": 2712,
      "Ġyes": 2713,
      "move": 2714,
      "view": 2715,
      "noreply": 2716,
      "34": 2717,
      "This": 2718,
      "action": 2719,
      "Ġen": 2720,
      "Ġ(-": 2721,
      "spe": 2722,
      "ĠST": 2723,
      "ĠMac": 2724,
      "Ġctor": 2725,
      "yntax": 2726,
      "43": 2727,
      "Le": 2728,
      "glitch": 2729,
      "prepare": 2730,
      "vault": 2731,
      "wer": 2732,
      "Ġpct": 2733,
      "ĠCycle": 2734,
      "ĠPQ": 2735,
      "Ġ\\\"\",": 2736,
      "Ġsecond": 2737,
      "sca": 2738,
      "Ġalready": 2739,
      "ĠĠĠĠĠĠĠĠĠĠĠĠĠĠĠ": 2740,
      "Ġuntag": 2741,
      "nonempty": 2742,
      "Ġreports": 2743,
      "column": 2744,
      "Ġstdlib": 2745,
      "Ġcounts": 2746,
      "Ġbytes": 2747,
      "ference": 2748,
      "clusions": 2749,
      "*.": 2750,
      "Ġli": 2751,
      "ĠTraining": 2752,
      "clude": 2753,
      "Ġdisplay": 2754,
      "Ġoptim": 2755,
      "before": 2756,
      "Ġfixes": 2757,
      "udget": 2758,
      "Ġconverts": 2759,
      "Ġliterals": 2760,
      "AM": 2761,
      "ION": 2762,
      "from": 2763,
      "py": 2764,
      "Ġcor": 2765,
      "Ġfo": 2766,
      "Ġwhe": 2767,
      "Ġrepeat": 2768,
      "ĠRet": 2769,
      "ĠRust": 2770,
      "Ġmust": 2771,
      "ution": 2772,
      "ĠComp": 2773,
      "quad": 2774,
      "Ġ([],": 2775,
      ":'#": 2776,
      "Ġ\"}]": 2777,
      "Ġactual": 2778,
      "catalyst": 2779,
      "/\\\\": 2780,
      "525": 2781,
      "Al": 2782,
      "fla": 2783,
      "sive": 2784,
      "save": 2785,
      "}}\"": 2786,
      "Ġswap": 2787,
      "Ġsingle": 2788,
      "allet": 2789,
      "Ġwc": 2790,
      "Ġparser": 2791,
      "ĠFib": 2792,
      "Ġstats": 2793,
      "Ġexists": 2794,
      "inking": 2795,
      "Ġevens": 2796,
      "loudfla": 2797,
      "speak": 2798,
      "loudflare": 2799,
      "%,": 2800,
      "();": 2801,
      "EL": 2802,
      "IT": 2803,
      "rgba": 2804,
      "ske": 2805,
      "tuple": 2806,
      "wlocs": 2807,
      "yp": 2808,
      "Ġca": 2809,
      "Ġclos": 2810,
      "Ġclose": 2811,
      "Ġcapt": 2812,
      "elper": 2813,
      "));": 2814,
      "Ġref": 2815,
      "spar": 2816,
      "Ġ[\".": 2817,
      "Ġml": 2818,
      "Ġdash": 2819,
      "Ġ\"...": 2820,
      "ĠGoal": 2821,
      "gengap": 2822,
      "elem": 2823,
      "Ġmarkers": 2824,
      "Ġproof": 2825,
      "dropdown": 2826,
      "Ġ\"}]}\"]": 2827,
      "52525": 2828,
      "skew": 2829,
      "//": 2830,
      "MAR": 2831,
      "gent": 2832,
      "nG": 2833,
      "Ġpipeline": 2834,
      "Ġso": 2835,
      "ĠFFI": 2836,
      "loads": 2837,
      "RAM": 2838,
      "Ġvariants": 2839,
      "regs": 2840,
      "56": 2841,
      "nth": 2842,
      "inal": 2843,
      "Ġav": 2844,
      "'></": 2845,
      "ĠLet": 2846,
      "ointer": 2847,
      "109": 2848,
      "Ġelems": 2849,
      "Ġvari": 2850,
      "Ġpatterns": 2851,
      "based": 2852,
      "compilation": 2853,
      "46": 2854,
      "=$": 2855,
      "NING": 2856,
      "wh": 2857,
      "Ġbench": 2858,
      "Ġrgba": 2859,
      "Ġ[\"/": 2860,
      "ance": 2861,
      "Ġdrop": 2862,
      "Ġ'\\\\": 2863,
      "locals": 2864,
      "ĠWASM": 2865,
      "Ġupdate": 2866,
      "uthor": 2867,
      "AN": 2868,
      "`\\": 2869,
      "Ġpython": 2870,
      "Ġcset": 2871,
      "rib": 2872,
      "Ġremote": 2873,
      "uncs": 2874,
      "Ġedge": 2875,
      "Ġ[\"(": 2876,
      "ystem": 2877,
      "Ġinit": 2878,
      "proof": 2879,
      "Ġready": 2880,
      "script": 2881,
      "Ġ90": 2882,
      "ĠWh": 2883,
      "world": 2884,
      "272": 2885,
      "27272": 2886,
      "Ġpool": 2887,
      "ĠHarvested": 2888,
      "extend": 2889,
      "ticks": 2890,
      "âĶģâĶģâĶģâĶģ": 2891,
      "Ġ\"|\"": 2892,
      "fvs": 2893,
      "agnose": 2894,
      "DAT": 2895,
      "EM": 2896,
      "None": 2897,
      "erat": 2898,
      "ws": 2899,
      "}.": 2900,
      "inter": 2901,
      "remote": 2902,
      "Ġfn": 2903,
      "arr": 2904,
      "hex": 2905,
      "Ġreal": 2906,
      "Ġrecv": 2907,
      "Ġstrlen": 2908,
      "umul": 2909,
      "Ġforw": 2910,
      "ĠBo": 2911,
      "123": 2912,
      "akes": 2913,
      "ĠADTs": 2914,
      "ĠCompiler": 2915,
      "Ġroute": 2916,
      "ious": 2917,
      "ĠHeap": 2918,
      "reshold": 2919,
      "59": 2920,
      "62": 2921,
      "QL": 2922,
      "mod": 2923,
      "ui": 2924,
      "ename": 2925,
      "recv": 2926,
      "Ġevery": 2927,
      "Ġ++": 2928,
      "pending": 2929,
      "hase": 2930,
      "stamp": 2931,
      "anced": 2932,
      "Ġdone": 2933,
      "urn": 2934,
      "urns": 2935,
      "ĠModel": 2936,
      "ĠGene": 2937,
      "improve": 2938,
      "Ġhealth": 2939,
      "retry": 2940,
      "nOutput": 2941,
      "Ġforwards": 2942,
      "'][": 2943,
      ";--": 2944,
      "Build": 2945,
      "eb": 2946,
      "fly": 2947,
      "ln": 2948,
      "tn": 2949,
      "Ŀ\"": 2950,
      "âķĿ\"": 2951,
      "inary": 2952,
      "Ġsche": 2953,
      "decl": 2954,
      "default": 2955,
      "Ġwcv": 2956,
      "hero": 2957,
      "unknown": 2958,
      "Ġevolve": 2959,
      "0000": 2960,
      "fadein": 2961,
      "ĠâķĲâķĲâķĲâķĲâķĲâķĲâķĲâķĲâķĲâķĲâķĲâķĲâķĲâķĲâķĲâķĲâķĲâķĲâķĲâķĲâķĲâķĲâķĲâķĲâķĲâķĲâķĲâķĲâķĲâķĲâķĲâķĲâķĲâķĲâķĲâķĲâķĲâķĲâķĲâķĲâķĲâķĲâķĲâķĲâķĲâķĲâķĲâķĲâķĲâķĲâķĲâķĲâķĲâķĲâķĲâķĲâķĲâķĲâķĲâķĲâķĲâķĲâķĲâķĲâķĲâķĲâķĲâķĲâķĲâķĲâķĲâķĲâķĲâķĲâķĲ": 2962,
      "Ġ{}": 2963,
      "ALU": 2964,
      "ĠRunning": 2965,
      "Ġ\"âķļ": 2966,
      "'>&#": 2967,
      "...\"])": 2968,
      ",_": 2969,
      "go": 2970,
      "ti": 2971,
      "Ġ=>": 2972,
      "ellow": 2973,
      "olute": 2974,
      "Ġgot": 2975,
      "lowed": 2976,
      "Ġinteger": 2977,
      "Op": 2978,
      "Ġset": 2979,
      "Ġscp": 2980,
      "Ġ[\",": 2981,
      "Ġbar": 2982,
      "ero": 2983,
      "Ġgit": 2984,
      "Ġparsing": 2985,
      "edge": 2986,
      "Ġasr": 2987,
      "score": 2988,
      "Ġoff": 2989,
      "connect": 2990,
      "Ġdispatch": 2991,
      "Ġpos": 2992,
      "uggest": 2993,
      "Ġwhere": 2994,
      "38": 2995,
      "47": 2996,
      "Print": 2997,
      "cu": 2998,
      "fc": 2999,
      "so": 3000,
      "sight": 3001,
      "Ġpoll": 3002,
      "atom": 3003,
      "Ġlt": 3004,
      "Ġbu": 3005,
      "thmet": 3006,
      "diff": 3007,
      "lob": 3008,
      "Ġdbl": 3009,
      "ĠMain": 3010,
      "Ġspan": 3011,
      "Ġ{\\\"": 3012,
      "2048": 3013,
      "Ġkill": 3014,
      "Ġbackend": 3015,
      "Ġoutputs": 3016,
      "columns": 3017,
      "Ġvariable": 3018,
      "thmetic": 3019,
      "58": 3020,
      "US": 3021,
      "ger": 3022,
      "Ġencode": 3023,
      "inline": 3024,
      "Ġ[\"[\",": 3025,
      "Ġgrid": 3026,
      "Ġexcept": 3027,
      "ĠMatch": 3028,
      "Ġdefin": 3029,
      "Ġcompiled": 3030,
      "timeout": 3031,
      "ARVE": 3032,
      "Ġjust": 3033,
      "ĠâķĲâķĲâķĲ\"": 3034,
      "elems": 3035,
      "Ġhashlib": 3036,
      "SERT": 3037,
      "Inter": 3038,
      "Ġ\"...\"])": 3039,
      "Ġdefinition": 3040,
      "ARVEST": 3041,
      "AD": 3042,
      "Int": 3043,
      "Run": 3044,
      "link": 3045,
      "poll": 3046,
      "sync": 3047,
      "Ġ;": 3048,
      "reate": 3049,
      "Ġmess": 3050,
      "peek": 3051,
      "Ġhard": 3052,
      "mary": 3053,
      "ersion": 3054,
      "Ġcycles": 3055,
      "Ġstdout": 3056,
      "erature": 3057,
      "700": 3058,
      "NO": 3059,
      "gradi": 3060,
      "nm": 3061,
      "rue": 3062,
      "Ġsign": 3063,
      "Ġitems": 3064,
      "Ġbd": 3065,
      "esses": 3066,
      "unk": 3067,
      "icks": 3068,
      "ĠPath": 3069,
      "imal": 3070,
      "888": 3071,
      "Ġbindings": 3072,
      "ĠServer": 3073,
      "Ġarithmetic": 3074,
      "gradient": 3075,
      "bi": 3076,
      "handle": 3077,
      "pointer": 3078,
      "Ġtst": 3079,
      "Ġwrap": 3080,
      "Ġ[\"#": 3081,
      "vera": 3082,
      "ĠPure": 3083,
      "Ġrandom": 3084,
      "ency": 3085,
      "Ġmultip": 3086,
      "Ġlike": 3087,
      "AP": 3088,
      "HE": 3089,
      "nwith": 3090,
      "nspar": 3091,
      "pulse": 3092,
      "wad": 3093,
      "Ġpick": 3094,
      "Ġsuggest": 3095,
      "rev": 3096,
      "stage": 3097,
      "asename": 3098,
      "Ġev": 3099,
      "vergence": 3100,
      "Ġinstr": 3101,
      "ĠPI": 3102,
      "ounds": 3103,
      "Ġ'/^": 3104,
      "ffff": 3105,
      "transpar": 3106,
      "Ġgenerator": 3107,
      "ENDO": 3108,
      "method": 3109,
      "idden": 3110,
      "Ġ170": 3111,
      "registry": 3112,
      "Ġrows": 3113,
      "ENDNEW": 3114,
      "ĠâĶĢâĶĢâĶĢâĶĢâĶĢâĶĢâĶĢâĶĢâĶĢâĶĢâĶĢâĶĢâĶĢâĶĢâĶĢâĶĢâĶĢâĶĢâĶĢâĶĢâĶĢâĶĢâĶĢâĶĢâĶĢâĶĢâĶĢâĶĢâĶĢâĶĢâĶĢâĶĢâĶĢâĶĢâĶĢâĶĢâĶĢâĶĢâĶĢâĶĢâĶĢâĶĢâĶĢâĶĢâĶĢâĶĢâĶĢâĶĢ": 3115,
      "FAILED": 3116,
      "dashed": 3117,
      "Ġfeedback": 3118,
      "transparent": 3119,
      "ENDOLD": 3120,
      "53": 3121,
      "All": 3122,
      "Author": 3123,
      "UP": 3124,
      "fra": 3125,
      "ports": 3126,
      "Ġtake": 3127,
      "onom": 3128,
      "Ġlx": 3129,
      "unique": 3130,
      "ĠStep": 3131,
      "ĠAp": 3132,
      "Ġneeds": 3133,
      "Ġ{\\": 3134,
      "Ġprevious": 3135,
      "Ġimport": 3136,
      "Ġboot": 3137,
      "Ġmach": 3138,
      "steps": 3139,
      "Ġdecla": 3140,
      "UND": 3141,
      "ĠStatus": 3142,
      "/*.": 3143,
      "Zero": 3144,
      "can": 3145,
      "tten": 3146,
      "raction": 3147,
      "Ġtop": 3148,
      "ĠCR": 3149,
      "strlen": 3150,
      "ĠTask": 3151,
      "resh": 3152,
      "uptime": 3153,
      "riple": 3154,
      "message": 3155,
      "Ġ\"&&": 3156,
      "Ġparame": 3157,
      "Ġ\"||": 3158,
      "Ġhelpers": 3159,
      "Ġ\"==\"": 3160,
      "'.": 3161,
      "'t": 3162,
      "52": 3163,
      "Name": 3164,
      "ote": 3165,
      "ral": 3166,
      "Ġac": 3167,
      "ata": 3168,
      "arn": 3169,
      ")),": 3170,
      "Ġinner": 3171,
      "ical": 3172,
      "ĠEX": 3173,
      "ĠGET": 3174,
      "compiler": 3175,
      "ĠLists": 3176,
      "Ġmanage": 3177,
      "overflow": 3178,
      "Alice": 3179,
      "LER": 3180,
      "]]": 3181,
      "brain": 3182,
      "}'\")": 3183,
      "Ġsync": 3184,
      "Ġfields": 3185,
      "Ġfallback": 3186,
      "memory": 3187,
      "Ġ[\"{\\\"": 3188,
      "Ġmatches": 3189,
      "veal": 3190,
      "Ġ\"\\\",": 3191,
      "Ġstrs": 3192,
      "Ġdur": 3193,
      "Ġ'^": 3194,
      "Ġ''\")": 3195,
      "Ġdedup": 3196,
      "ible": 3197,
      "isible": 3198,
      "mdash": 3199,
      "Ġconclusions": 3200,
      "lower": 3201,
      "Ġ99": 3202,
      "refix": 3203,
      "apply": 3204,
      "ĠVALU": 3205,
      "newline": 3206,
      "ĠTools": 3207,
      "ĠKV": 3208,
      "ways": 3209,
      "nCon": 3210,
      "ĠINTO": 3211,
      "Ġdescriptions": 3212,
      "Leaves": 3213,
      "Ġmanagement": 3214,
      "ĠVALUES": 3215,
      "ated": 3216,
      "hash": 3217,
      "sign": 3218,
      "roken": 3219,
      "ĠSet": 3220,
      "ured": 3221,
      "))))))": 3222,
      "('\\\\": 3223,
      "cpu": 3224,
      "]))\\": 3225,
      "LES": 3226,
      "tempts": 3227,
      "temperature": 3228,
      "(){": 3229,
      "Comp": 3230,
      "['": 3231,
      "patch": 3232,
      "pprog": 3233,
      "uctor": 3234,
      "wait": 3235,
      "Ġ?": 3236,
      "Ġxargs": 3237,
      "headers": 3238,
      "disk": 3239,
      "Ġ23": 3240,
      "textContent": 3241,
      "ĠSQL": 3242,
      "])\"": 3243,
      "Ġdecode": 3244,
      "choices": 3245,
      "256": 3246,
      "ĠJust": 3247,
      "ntry": 3248,
      "Ġ$?": 3249,
      "ches": 3250,
      "\")))))": 3251,
      ".*": 3252,
      "51": 3253,
      "54": 3254,
      "Har": 3255,
      "crun": 3256,
      "pus": 3257,
      "}],": 3258,
      "Ġel": 3259,
      "Ġ28": 3260,
      "Ġemit": 3261,
      "Ġevents": 3262,
      "ĠNEW": 3263,
      "tocol": 3264,
      "Ġdest": 3265,
      "ders": 3266,
      "\\\":[": 3267,
      "Ġelem": 3268,
      "Ġgenerated": 3269,
      "Ġ4096": 3270,
      ")\\\">": 3271,
      "68": 3272,
      "BE": 3273,
      "GIN": 3274,
      "fine": 3275,
      "lhs": 3276,
      "wpe": 3277,
      "ĺħ": 3278,
      "Ġctag": 3279,
      "racle": 3280,
      "Ġfinal": 3281,
      "Ġ[],": 3282,
      "allowed": 3283,
      "Ġ210": 3284,
      "lookup": 3285,
      "Ġgreen": 3286,
      "ĠSY": 3287,
      "ĠCall": 3288,
      "ĠChart": 3289,
      "ĠAr": 3290,
      "ĠPhase": 3291,
      "Ġtheir": 3292,
      "ĠEach": 3293,
      "edup": 3294,
      "Ġ1024": 3295,
      "explore": 3296,
      "ĠGreen": 3297,
      "Ġneed": 3298,
      "Ġ\":[\",": 3299,
      "trust": 3300,
      "Ġkw": 3301,
      "backticks": 3302,
      "ĠUn": 3303,
      "ĠĠĠĠĠĠĠĠĠĠĠĠĠ": 3304,
      "pool": 3305,
      "css": 3306,
      "Ġarea": 3307,
      "Ġheap": 3308,
      "wcg": 3309,
      "atcher": 3310,
      "Ġ\")\"])": 3311,
      "Ġtrack": 3312,
      "Ġ\"]\"])": 3313,
      "Ġshuff": 3314,
      "Ġbinds": 3315,
      "absolute": 3316,
      "OMPILER": 3317,
      "Ġmessage": 3318,
      "BEGIN": 3319,
      "):": 3320,
      ")\",": 3321,
      "87": 3322,
      "mult": 3323,
      "Ġcase": 3324,
      "Ġstruct": 3325,
      "Ġ300": 3326,
      "Ġinput": 3327,
      "Ġ'+": 3328,
      "Ġ2026": 3329,
      "nection": 3330,
      "Ġ\"&\"": 3331,
      "imate": 3332,
      "Ġbootstrap": 3333,
      "'),": 3334,
      ">';\"": 3335,
      "Push": 3336,
      "si": 3337,
      "tgt": 3338,
      "recur": 3339,
      "tered": 3340,
      "random": 3341,
      "Ġ150": 3342,
      "alize": 3343,
      "ricul": 3344,
      "Ġversion": 3345,
      "Ġany": 3346,
      "otal": 3347,
      "fff": 3348,
      "Ġseed": 3349,
      "Ġtagged": 3350,
      "binary": 3351,
      "9090": 3352,
      "Ġ2000": 3353,
      "nEx": 3354,
      "Ġ\"!=\"": 3355,
      "riculum": 3356,
      "circle": 3357,
      "ssh": 3358,
      "uses": 3359,
      "Ġ`": 3360,
      "Ġheight": 3361,
      "Ġzero": 3362,
      "ator": 3363,
      "Ġmore": 3364,
      "ĠSkip": 3365,
      "Ġanalyze": 3366,
      "ĠOne": 3367,
      "Ġlay": 3368,
      "Ġ\"\\\"},": 3369,
      "imit": 3370,
      "Ġ$\",": 3371,
      "Ġhostname": 3372,
      "argeted": 3373,
      "String": 3374,
      "+='": 3375,
      ",/^": 3376,
      ":</": 3377,
      "EX": 3378,
      "Lawait": 3379,
      "ares": 3380,
      "bout": 3381,
      "every": 3382,
      "first": 3383,
      "lative": 3384,
      "mon": 3385,
      "nS": 3386,
      "pri": 3387,
      "pow": 3388,
      "power": 3389,
      "pkill": 3390,
      "table": 3391,
      "reveal": 3392,
      "relative": 3393,
      "Ġair": 3394,
      "Ġlhs": 3395,
      "Ġwas": 3396,
      "Ġband": 3397,
      "Ġequ": 3398,
      "Ġstk": 3399,
      "\\\")\\": 3400,
      "ĠRU": 3401,
      "ĠLED": 3402,
      "icon": 3403,
      "Ġdefault": 3404,
      "ĠOLD": 3405,
      "ĠHARVEST": 3406,
      "Define": 3407,
      "ĠBand": 3408,
      "ATE": 3409,
      "ATIC": 3410,
      "nodes": 3411,
      "Ġchannel": 3412,
      "mini": 3413,
      "ivity": 3414,
      "Ġrecursive": 3415,
      "Ġlibc": 3416,
      "```\\": 3417,
      "Ġpropose": 3418,
      "classify": 3419,
      "ĠâĶĢâĶĢâĶĢâĶĢâĶĢâĶĢâĶĢâĶĢâĶĢâĶĢâĶĢâĶĢâĶĢâĶĢâĶĢâĶĢâĶĢâĶĢâĶĢâĶĢâĶĢâĶĢâĶĢâĶĢâĶĢâĶĢâĶĢâĶĢâĶĢâĶĢâĶĢâĶĢâĶĢâĶĢâĶĢâĶĢâĶĢâĶĢâĶĢâĶĢâĶĢâĶĢâĶĢâĶĢâĶĢâĶĢâĶĢâĶĢâĶĢâĶĢâĶĢâĶĢâĶĢâĶĢâĶĢâĶĢ": 3420,
      "ĠLEDATIC": 3421,
      "Aut": 3422,
      "ps": 3423,
      "ume": 3424,
      "Ġtakes": 3425,
      "Ġaut": 3426,
      "Ġprov": 3427,
      "arms": 3428,
      "asy": 3429,
      "erent": 3430,
      "Ġ48": 3431,
      "Ġâľ": 3432,
      "Ġnamed": 3433,
      "Ġ\":\"": 3434,
      "INSERT": 3435,
      "format": 3436,
      "ĠWait": 3437,
      "Ġ\"]\"]": 3438,
      "ĠLambda": 3439,
      "Ġplanning": 3440,
      "084": 3441,
      "/$": 3442,
      "=\")": 3443,
      "OS": 3444,
      "ful": 3445,
      "idi": 3446,
      "ming": 3447,
      "va": 3448,
      "Ġtyp": 3449,
      "Ġsqrt": 3450,
      "Ġframe": 3451,
      "Ġba": 3452,
      "Ġbetween": 3453,
      "medi": 3454,
      "ĠPlan": 3455,
      "Ġspace": 3456,
      "Ġlambda": 3457,
      "cursor": 3458,
      "Ġcompose": 3459,
      "Ġanswer": 3460,
      "ĠStop": 3461,
      "impl": 3462,
      "bsidi": 3463,
      "autocatalyst": 3464,
      "Ġ},\\": 3465,
      "bsidian": 3466,
      "Each": 3467,
      "Ġsup": 3468,
      "Ġcross": 3469,
      "Ġ__": 3470,
      "iling": 3471,
      "Ġwis": 3472,
      "dist": 3473,
      "])\\": 3474,
      "dataset": 3475,
      "Ġ70": 3476,
      "Ġsummary": 3477,
      "iant": 3478,
      "verify": 3479,
      "Ġbool": 3480,
      "Ġshort": 3481,
      "structure": 3482,
      ",__": 3483,
      "ĠSQLite": 3484,
      "./": 3485,
      "/'": 3486,
      "NU": 3487,
      "VAR": 3488,
      "WN": 3489,
      "ble": 3490,
      "btn": 3491,
      "os": 3492,
      "tab": 3493,
      "uite": 3494,
      "ww": 3495,
      "ension": 3496,
      "Ġsame": 3497,
      "Ġsha": 3498,
      "Ġsquare": 3499,
      "Ġside": 3500,
      "âķĲâķĲâķĲâķĲâķĲâķĲâķĲâķĲâķĲâķĲâķĲ": 3501,
      "seen": 3502,
      "Ġcum": 3503,
      "Ġavg": 3504,
      "Ġactions": 3505,
      "Ġfw": 3506,
      "Ġ140": 3507,
      "Ġwcg": 3508,
      "Ġrounds": 3509,
      "med": 3510,
      "\\\")": 3511,
      "ĠCLI": 3512,
      "ĠPer": 3513,
      "Ġdete": 3514,
      "\"]),": 3515,
      "etro": 3516,
      "fast": 3517,
      "chart": 3518,
      "Ġconst": 3519,
      "selftrain": 3520,
      "trader": 3521,
      "hostname": 3522,
      "ĠUp": 3523,
      "convergence": 3524,
      "Ġ655": 3525,
      "Ġident": 3526,
      "Ġkeyword": 3527,
      "5050": 3528,
      "repairs": 3529,
      "Ġsvcs": 3530,
      "Ġprocesses": 3531,
      "merged": 3532,
      "âķĲâķĲâķĲâķĲâķĲâķĲâķĲâķĲâķĲâķĲâķĲâķĲâķĲâķĲâķĲâķĲâķĲâķĲâķĲâķĲâķĲâķĲâķĲâķĲâķĲâķĲâķĲâķĲâķĲâķĲâķĲâķĲâķĲâķĲâķĲâķĲâķĲâķĲâķĲâķĲâķĲâķĲâķĲâķĲâķĲâķĲâķĲâķĲâķĲâķĲâķĲâķĲâķĲâķĲâķĲâķĲâķĲâķĲâķĲ": 3533,
      "classList": 3534,
      "licate": 3535,
      "uppercase": 3536,
      "ĠVariant": 3537,
      "Ġwritten": 3538,
      "Ġeffects": 3539,
      "142": 3540,
      "61": 3541,
      "PLE": 3542,
      "POST": 3543,
      "VT": 3544,
      "funcs": 3545,
      "ous": 3546,
      "plit": 3547,
      "wat": 3548,
      "xcrun": 3549,
      "Ġkeep": 3550,
      "Ġtim": 3551,
      "Ġsyntax": 3552,
      "adt": 3553,
      "Ġbs": 3554,
      "Ġbudget": 3555,
      "izing": 3556,
      "ĠAgent": 3557,
      "))),": 3558,
      "Ġ\"\\\"}],": 3559,
      "323": 3560,
      "Ġnewline": 3561,
      "Ġcomma": 3562,
      "ĠVe": 3563,
      "Ġfinds": 3564,
      "Ġexpressions": 3565,
      "cases": 3566,
      "Ġoperator": 3567,
      "onomous": 3568,
      ")],": 3569,
      "cfg": 3570,
      "gene": 3571,
      "part": 3572,
      "sha": 3573,
      "ĠgetOrDefault": 3574,
      "leted": 3575,
      "Ġitem": 3576,
      "Ġ120": 3577,
      "ollect": 3578,
      "ĠCollect": 3579,
      "Ġinfo": 3580,
      "ĠTra": 3581,
      "Ġadr": 3582,
      "linear": 3583,
      "Ġalbl": 3584,
      "Ġ1000": 3585,
      "queue": 3586,
      ":'';": 3587,
      "metallib": 3588,
      "Ġevalu": 3589,
      "ĠConnect": 3590,
      "Ġflatten": 3591,
      "Ġclosures": 3592,
      "ĠConnectTimeout": 3593,
      "75": 3594,
      "Ad": 3595,
      "He": 3596,
      "evol": 3597,
      "nfor": 3598,
      "Ġsuite": 3599,
      "tein": 3600,
      "\\\">\\": 3601,
      "roug": 3602,
      "Ġgather": 3603,
      "ĠPost": 3604,
      "ĠTime": 3605,
      "Ġspaces": 3606,
      "forEach": 3607,
      "Ġlevels": 3608,
      "shtein": 3609,
      "Ġlogs": 3610,
      "venshtein": 3611,
      "Ġ@/": 3612,
      "Ġtimestamp": 3613,
      "Ġoperations": 3614,
      "waterfall": 3615,
      "Ġproduces": 3616,
      "rough": 3617,
      "Lsplit": 3618,
      "UD": 3619,
      "WHE": 3620,
      "bur": 3621,
      "cum": 3622,
      "lbracket": 3623,
      "rbracket": 3624,
      "Ġ\"',": 3625,
      "Ġ\"?\"": 3626,
      "Ġsm": 3627,
      "Ġsr": 3628,
      "Ġsour": 3629,
      "atures": 3630,
      "Ġ[]\\": 3631,
      "hot": 3632,
      "Ġrsp": 3633,
      "digest": 3634,
      "chunk": 3635,
      "ĠRO": 3636,
      "ĠRed": 3637,
      "Ġexact": 3638,
      "Ġarray": 3639,
      "Ġinser": 3640,
      "Ġdepend": 3641,
      "ĠTuples": 3642,
      "Ġ&\"": 3643,
      "ĠGap": 3644,
      "ĠGaps": 3645,
      "scp": 3646,
      "andbox": 3647,
      "comma": 3648,
      "shr": 3649,
      "LYWHE": 3650,
      "ETRAIN": 3651,
      "Ġagain": 3652,
      "ICAL": 3653,
      "Ġminimal": 3654,
      "oversight": 3655,
      "Ġmulti": 3656,
      "lparen": 3657,
      "()).": 3658,
      "LINE": 3659,
      "Ġresponding": 3660,
      "white": 3661,
      "Ġ[\"(\",": 3662,
      "hexdigest": 3663,
      "Ġacross": 3664,
      "burger": 3665,
      "LYWHEEL": 3666,
      "Your": 3667,
      "dot": 3668,
      "nContent": 3669,
      "nFix": 3670,
      "nYour": 3671,
      "sn": 3672,
      "sig": 3673,
      "target": 3674,
      "wice": 3675,
      "arted": 3676,
      "thinking": 3677,
      "ified": 3678,
      "ĠSe": 3679,
      "Ġqual": 3680,
      "ĠCo": 3681,
      "ĠLog": 3682,
      "ĠAuto": 3683,
      "Ġmatching": 3684,
      "Ġopts": 3685,
      "Ġsection": 3686,
      "Ġcharset": 3687,
      "commit": 3688,
      "Ġattempts": 3689,
      "Ġobject": 3690,
      "Ġquote": 3691,
      "Ġoptimization": 3692,
      "DATA": 3693,
      "Ġencoded": 3694,
      "Ġdeclarations": 3695,
      "ĠVerif": 3696,
      "Con": 3697,
      "Var": 3698,
      "cript": 3699,
      "fs": 3700,
      "sqrt": 3701,
      "uch": 3702,
      "Ġsuccess": 3703,
      "arena": 3704,
      "rot": 3705,
      "iful": 3706,
      "Ġdoc": 3707,
      "usage": 3708,
      "Ġ\"<=\"": 3709,
      "],[": 3710,
      "ations": 3711,
      "point": 3712,
      "Ġword": 3713,
      "){\"": 3714,
      "initial": 3715,
      "Ġ\">=\"": 3716,
      "autiful": 3717,
      "Ġbuf": 3718,
      "+='<": 3719,
      "717": 3720,
      "ging": 3721,
      "ient": 3722,
      "prefix": 3723,
      "Ġge": 3724,
      "Ġ\"}\"]": 3725,
      "inner": 3726,
      "Ġthrough": 3727,
      "arith": 3728,
      "Ġrel": 3729,
      "Ġ===": 3730,
      "roup": 3731,
      "ogle": 3732,
      "toks": 3733,
      "Ġins": 3734,
      "ĠAd": 3735,
      "argv": 3736,
      "isk": 3737,
      "fonts": 3738,
      "places": 3739,
      "levels": 3740,
      "Ġbuilding": 3741,
      "Ġqueue": 3742,
      "Ġbenchmark": 3743,
      "google": 3744,
      "/;": 3745,
      "=<": 3746,
      ">;": 3747,
      ">\")": 3748,
      "AST": 3749,
      "ADT": 3750,
      "Helper": 3751,
      "LT": 3752,
      "OC": 3753,
      "Pro": 3754,
      "SF": 3755,
      "Sub": 3756,
      "aterfall": 3757,
      "cy": 3758,
      "ga": 3759,
      "gn": 3760,
      "ise": 3761,
      "lr": 3762,
      "net": 3763,
      "nadd": 3764,
      "nprint": 3765,
      "trib": 3766,
      "uted": 3767,
      "vas": 3768,
      "Ġhow": 3769,
      "ins": 3770,
      "enable": 3771,
      "Ġptr": 3772,
      "Ġpprog": 3773,
      "Ġcal": 3774,
      "Ġ_\",": 3775,
      "Ġ[--": 3776,
      "Ġnone": 3777,
      "Ġbal": 3778,
      "uni": 3779,
      "\\\";": 3780,
      "ĠRec": 3781,
      "Ġanimation": 3782,
      "Ġ540": 3783,
      "Ġ400": 3784,
      "Ġoracle": 3785,
      "chomp": 3786,
      "ĠBe": 3787,
      "ĠBinary": 3788,
      "click": 3789,
      ");\\": 3790,
      "ĠDedup": 3791,
      "ĠDetro": 3792,
      "Ġ999": 3793,
      "STEM": 3794,
      "running": 3795,
      "Ġ\"##": 3796,
      "marker": 3797,
      "Ġwhas": 3798,
      "Ġhttps": 3799,
      "Ġ$/;": 3800,
      "outer": 3801,
      "kwargs": 3802,
      "Ġuptime": 3803,
      "PID": 3804,
      "Ġtimeout": 3805,
      "Ġtpc": 3806,
      "RAILVAR": 3807,
      "ĠConfig": 3808,
      "Ġconvergence": 3809,
      "translateY": 3810,
      ",\\\"/": 3811,
      "missing": 3812,
      "Token": 3813,
      "IME": 3814,
      "Runtime": 3815,
      "canvas": 3816,
      "Ġshuffled": 3817,
      "tribute": 3818,
      "Ġ$/;$": 3819,
      "'\"": 3820,
      "IG": 3821,
      "];": 3822,
      "cf": 3823,
      "Ġtuple": 3824,
      "ell": 3825,
      "onment": 3826,
      "starts": 3827,
      "arning": 3828,
      "alnum": 3829,
      "Ġremain": 3830,
      "ĠRo": 3831,
      "Ġdot": 3832,
      "ironment": 3833,
      "structor": 3834,
      "644": 3835,
      "Ġconc": 3836,
      "abil": 3837,
      "Ġusers": 3838,
      "404": 3839,
      "httpbin": 3840,
      "Ġcontents": 3841,
      "words": 3842,
      "Ġmetallib": 3843,
      "Ġprotocol": 3844,
      "Ġcause": 3845,
      "uniq": 3846,
      "lc": 3847,
      "nf": 3848,
      "the": 3849,
      "wit": 3850,
      "zr": 3851,
      "Ġ)": 3852,
      "ĠY": 3853,
      "ĠZero": 3854,
      "ello": 3855,
      "elay": 3856,
      "illy": 3857,
      "Ġxzr": 3858,
      "Ġlb": 3859,
      "ord": 3860,
      "Ġrle": 3861,
      "Ġmis": 3862,
      "ists": 3863,
      "lain": 3864,
      "Ġdecl": 3865,
      "ĠObsidian": 3866,
      "ĠER": 3867,
      "ackages": 3868,
      "exists": 3869,
      "160": 3870,
      "Ġlang": 3871,
      "Ġaddr": 3872,
      "=\\\"#": 3873,
      "ĠWAR": 3874,
      "Ġvalidate": 3875,
      "description": 3876,
      "]['": 3877,
      "Ġhdrs": 3878,
      "ĠCRT": 3879,
      ")'": 3880,
      "=[": 3881,
      "About": 3882,
      "Date": 3883,
      "aded": 3884,
      "graph": 3885,
      "glob": 3886,
      "hup": 3887,
      "malloc": 3888,
      "oter": 3889,
      "levenshtein": 3890,
      "Ġtuples": 3891,
      "ens": 3892,
      "chan": 3893,
      "apis": 3894,
      "ĠCloudflare": 3895,
      "lam": 3896,
      "Ġ52": 3897,
      "Ġ2048": 3898,
      "ĠData": 3899,
      "Ġwhen": 3900,
      "mands": 3901,
      "bytes": 3902,
      "googleapis": 3903,
      "500": 3904,
      "?'": 3905,
      "Hub": 3906,
      "Sele": 3907,
      "VER": 3908,
      "[{\",": 3909,
      "ided": 3910,
      "lds": 3911,
      "nThe": 3912,
      "pipeline": 3913,
      "plain": 3914,
      "uz": 3915,
      "inde": 3916,
      "Ġletter": 3917,
      "Ġshape": 3918,
      "Ġsimpl": 3919,
      "onacc": 3920,
      "Ġprob": 3921,
      "Ġfresh": 3922,
      "aries": 3923,
      "Ġprinting": 3924,
      "itHub": 3925,
      "Ġevol": 3926,
      "ulty": 3927,
      "Ġmini": 3928,
      "animate": 3929,
      "peak": 3930,
      "apabil": 3931,
      "uting": 3932,
      "Ġhig": 3933,
      "iculty": 3934,
      "ĠPat": 3935,
      "Ġ'\")": 3936,
      "ĠThis": 3937,
      "Ġ108": 3938,
      "ĠGAP": 3939,
      "Ġ\":[{\",": 3940,
      "Ġalpha": 3941,
      "ĠIt": 3942,
      "Ġdirect": 3943,
      "('.": 3944,
      "ĠReason": 3945,
      "ARM": 3946,
      "Ġfailure": 3947,
      "LECT": 3948,
      "ĠExpected": 3949,
      "rparen": 3950,
      "ĠResp": 3951,
      "Ġbinaries": 3952,
      "Ġrates": 3953,
      "ĠStrings": 3954,
      "Ġchang": 3955,
      "ENDRAILCODE": 3956,
      "ĠâĶĢâĶĢâĶĢâĶĢâĶĢâĶĢâĶĢâĶĢâĶĢâĶĢâĶĢâĶĢâĶĢâĶĢâĶĢâĶĢâĶĢâĶĢâĶĢâĶĢâĶĢâĶĢâĶĢâĶĢâĶĢâĶĢâĶĢâĶĢâĶĢâĶĢâĶĢâĶĢâĶĢâĶĢâĶĢâĶĢâĶĢâĶĢâĶĢâĶĢâĶĢâĶĢâĶĢâĶĢâĶĢâĶĢâĶĢâĶĢâĶĢâĶĢâĶĢâĶĢâĶĢâĶĢâĶĢâĶĢâĶĢâĶĢâĶĢâĶĢâĶĢâĶĢâĶĢâĶĢ": 3957,
      "Ġquest": 3958,
      "querySele": 3959,
      "process": 3960,
      "Ġ\"âķĶâķĲâķĲâķĲâķĲâķĲâķĲâķĲâķĲâķĲâķĲâķĲâķĲâķĲâķĲâķĲâķĲâķĲâķĲâķĲâķĲâķĲâķĲâķĲâķĲâķĲâķĲâķĲâķĲâķĲâķĲâķĲâķĲâķĲâķĲâķĲâķĲâķĲâķĲâķĲâķĲâķĲâķĲâķĲâķĲâķĲâķĲâķĲâķĲâķĲâķĲâķĲâķĲâķĲâķĲ": 3961,
      "âķĲâķĲâķĲâķĲâķĲâķĲâķĲâķĲâķĲâķĲâķĲâķĲâķĲâķĲâķĲâķĲâķĲâķĲâķĲâķĲâķĲâķĲâķĲâķĲâķĲâķĲâķĲâķĲâķĲâķĲâķĲâķĲâķĲâķĲâķĲâķĲâķĲâķĲâķĲâķĲâķĲâķĲâķĲâķĲâķĲâķĲâķĲâķĲâķĲâķĲâķĲâķĲâķĲâķĲâķĿ\"": 3962,
      "ĠSTAT": 3963,
      "ĠrepeatCount": 3964,
      "ĠBool": 3965,
      "Ġ\"âķļâķĲâķĲâķĲâķĲâķĲâķĲâķĲâķĲâķĲâķĲâķĲâķĲâķĲâķĲâķĲâķĲâķĲâķĲâķĲâķĲâķĲâķĲâķĲâķĲâķĲâķĲâķĲâķĲâķĲâķĲâķĲâķĲâķĲâķĲâķĲâķĲâķĲâķĲâķĲâķĲâķĲâķĲâķĲâķĲâķĲâķĲâķĲâķĲâķĲâķĲâķĲâķĲâķĲâķĲâķĿ\"": 3966,
      "nConnection": 3967,
      "Harvest": 3968,
      "Ġdetect": 3969,
      "indefinite": 3970,
      "onacci": 3971,
      "querySelector": 3972,
      "Ġ\"âķĶâķĲâķĲâķĲâķĲâķĲâķĲâķĲâķĲâķĲâķĲâķĲâķĲâķĲâķĲâķĲâķĲâķĲâķĲâķĲâķĲâķĲâķĲâķĲâķĲâķĲâķĲâķĲâķĲâķĲâķĲâķĲâķĲâķĲâķĲâķĲâķĲâķĲâķĲâķĲâķĲâķĲâķĲâķĲâķĲâķĲâķĲâķĲâķĲâķĲâķĲâķĲâķĲâķĲâķĲâķĹ\"": 3973,
      "%)": 3974,
      "([": 3975,
      "0400": 3976,
      "SIG": 3977,
      "df": 3978,
      "ually": 3979,
      "Ġzemo": 3980,
      "Ġ\"==": 3981,
      "Ġ((": 3982,
      "Ġpers": 3983,
      "hored": 3984,
      "Ġnon": 3985,
      "throp": 3986,
      "anthrop": 3987,
      "ĠSplit": 3988,
      "ĠAls": 3989,
      "output": 3990,
      "ĠMe": 3991,
      "ĠMin": 3992,
      "ĠMar": 3993,
      "Ġ100644": 3994,
      "Ġ$?\"": 3995,
      "UTF": 3996,
      "odule": 3997,
      "Ġdifferent": 3998,
      "ĠOpus": 3999,
      "+++": 4000,
      "Ġregis": 4001,
      "Ġscores": 4002,
      "Ġcorrect": 4003,
      "Ġvariables": 4004,
      "Ġmachine": 4005,
      "Authored": 4006,
      "Adder": 4007,
      "anthropic": 4008,
      "ĠAlso": 4009,
      "CPU": 4010,
      "GB": 4011,
      "Two": 4012,
      "bc": 4013,
      "fb": 4014,
      "gb": 4015,
      "grammar": 4016,
      "jstr": 4017,
      "}}\"]": 4018,
      "Ġleaves": 4019,
      "Ġpower": 4020,
      "ading": 4021,
      "Ġnargs": 4022,
      "rics": 4023,
      "\\\"\",": 4024,
      "analyze": 4025,
      "Ġvm": 4026,
      "ĠLast": 4027,
      "service": 4028,
      "ĠEsca": 4029,
      "omez": 4030,
      "argc": 4031,
      "Ġdiagnose": 4032,
      "chest": 4033,
      "Ġ\"_\"": 4034,
      "LEET": 4035,
      "beautiful": 4036,
      "Ġextracts": 4037,
      "Ġverified": 4038,
      "tical": 4039,
      "Ġ\"}\"])": 4040,
      "Ġincre": 4041,
      "Ġquery": 4042,
      "Ġ\"(\"": 4043,
      "ĠStarting": 4044,
      "Ġextraction": 4045,
      "ranch": 4046,
      "scale": 4047,
      "Ġavoid": 4048,
      "rotate": 4049,
      "ĠEscape": 4050,
      "AB": 4051,
      "Ex": 4052,
      "big": 4053,
      "fit": 4054,
      "nc": 4055,
      "pgrep": 4056,
      "parts": 4057,
      "Ġsent": 4058,
      "Ġfp": 4059,
      "ything": 4060,
      "stdin": 4061,
      "encies": 4062,
      "Ġ\"[\"": 4063,
      "ĠDeploy": 4064,
      "Ġarity": 4065,
      "LINES": 4066,
      "Ġposition": 4067,
      "verall": 4068,
      "frastructure": 4069,
      "ĠNEWLINES": 4070,
      "ĠERROR": 4071,
      "'\\": 4072,
      "())\\": 4073,
      ")\")": 4074,
      ")\\\">\",": 4075,
      "9101": 4076,
      ";\",": 4077,
      "AUT": 4078,
      "Bo": 4079,
      "Cycle": 4080,
      "CLE": 4081,
      "Chart": 4082,
      "Lyield": 4083,
      "NF": 4084,
      "OP": 4085,
      "SE": 4086,
      "Tra": 4087,
      "]\"])": 4088,
      "ament": 4089,
      "car": 4090,
      "eded": 4091,
      "fx": 4092,
      "growth": 4093,
      "iters": 4094,
      "nseen": 4095
    },
    "merges": [
      [
        "â",
        "ķ"
      ],
      [
        "âķ",
        "Ĳ"
      ],
      [
        "âķĲ",
        "âķĲ"
      ],
      [
        "Ġ",
        "Ġ"
      ],
      [
        "Ġ",
        "="
      ],
      [
        "l",
        "e"
      ],
      [
        "âķĲâķĲ",
        "âķĲâķĲ"
      ],
      [
        "Ġ",
        "\""
      ],
      [
        "i",
        "n"
      ],
      [
        "Ġ",
        "("
      ],
      [
        "Ġ",
        "le"
      ],
      [
        "Ġ",
        "t"
      ],
      [
        "Ġle",
        "t"
      ],
      [
        "e",
        "n"
      ],
      [
        "Ġ",
        "p"
      ],
      [
        "ĠĠ",
        "Ġ"
      ],
      [
        "Ġ",
        "s"
      ],
      [
        "r",
        "e"
      ],
      [
        "âķĲâķĲâķĲâķĲ",
        "âķĲâķĲâķĲâķĲ"
      ],
      [
        "t",
        "e"
      ],
      [
        "s",
        "e"
      ],
      [
        "Ġ",
        "c"
      ],
      [
        "Ġ",
        "_"
      ],
      [
        "e",
        "l"
      ],
      [
        "r",
        "a"
      ],
      [
        "Ġ",
        "a"
      ],
      [
        "i",
        "l"
      ],
      [
        "o",
        "n"
      ],
      [
        "a",
        "t"
      ],
      [
        "s",
        "t"
      ],
      [
        "Ġt",
        "h"
      ],
      [
        "Ġp",
        "r"
      ],
      [
        "in",
        "t"
      ],
      [
        "Ġ",
        "0"
      ],
      [
        "Ġ",
        "i"
      ],
      [
        "Ġ",
        "f"
      ],
      [
        "Ġ",
        "-"
      ],
      [
        "a",
        "r"
      ],
      [
        "\"",
        ","
      ],
      [
        "Ġ",
        "x"
      ],
      [
        "el",
        "se"
      ],
      [
        "Ġth",
        "en"
      ],
      [
        "Ġ",
        "else"
      ],
      [
        "Ġpr",
        "int"
      ],
      [
        "d",
        "e"
      ],
      [
        "Ġ",
        "["
      ],
      [
        "Ġ",
        "l"
      ],
      [
        "m",
        "p"
      ],
      [
        "o",
        "r"
      ],
      [
        "a",
        "d"
      ],
      [
        "Ġ",
        "1"
      ],
      [
        "âķĲâķĲâķĲâķĲâķĲâķĲâķĲâķĲ",
        "âķĲâķĲâķĲâķĲâķĲâķĲâķĲâķĲ"
      ],
      [
        "Ġi",
        "f"
      ],
      [
        "Ġ",
        "|"
      ],
      [
        "a",
        "l"
      ],
      [
        ")",
        ")"
      ],
      [
        "Ġ",
        "w"
      ],
      [
        "a",
        "il"
      ],
      [
        "h",
        "e"
      ],
      [
        "h",
        "o"
      ],
      [
        "m",
        "a"
      ],
      [
        "Ġ",
        "n"
      ],
      [
        "x",
        "t"
      ],
      [
        "a",
        "s"
      ],
      [
        "r",
        "i"
      ],
      [
        "Ġ",
        "re"
      ],
      [
        "Ġ=",
        "="
      ],
      [
        "Ġ",
        "b"
      ],
      [
        "t",
        "h"
      ],
      [
        "e",
        "s"
      ],
      [
        "Ġ",
        "r"
      ],
      [
        "e",
        "r"
      ],
      [
        "en",
        "d"
      ],
      [
        "u",
        "n"
      ],
      [
        "Ġ-",
        ">"
      ],
      [
        "ra",
        "il"
      ],
      [
        "s",
        "p"
      ],
      [
        "ho",
        "w"
      ],
      [
        "m",
        "e"
      ],
      [
        "d",
        "i"
      ],
      [
        "ĠĠ",
        "ĠĠĠ"
      ],
      [
        "-",
        "-"
      ],
      [
        "â",
        "Ķ"
      ],
      [
        "ma",
        "in"
      ],
      [
        "in",
        "g"
      ],
      [
        "âĶ",
        "Ģ"
      ],
      [
        "o",
        "l"
      ],
      [
        "o",
        "de"
      ],
      [
        "i",
        "t"
      ],
      [
        "Ġ",
        "2"
      ],
      [
        "Ġ",
        "e"
      ],
      [
        "Ġ",
        "+"
      ],
      [
        "o",
        "f"
      ],
      [
        "Ġs",
        "t"
      ],
      [
        "âĶĢ",
        "âĶĢ"
      ],
      [
        "i",
        "le"
      ],
      [
        "he",
        "ad"
      ],
      [
        "\\",
        "\""
      ],
      [
        "n",
        "g"
      ],
      [
        "te",
        "xt"
      ],
      [
        "i",
        "g"
      ],
      [
        "Ġt",
        "o"
      ],
      [
        "en",
        "t"
      ],
      [
        "Ġ[",
        "\""
      ],
      [
        "c",
        "t"
      ],
      [
        "c",
        "h"
      ],
      [
        "Ġ",
        "R"
      ],
      [
        "c",
        "at"
      ],
      [
        "Ġ\"",
        ","
      ],
      [
        "u",
        "l"
      ],
      [
        "Ġ",
        "m"
      ],
      [
        "|",
        ">"
      ],
      [
        "<",
        "|"
      ],
      [
        "end",
        "of"
      ],
      [
        "endof",
        "text"
      ],
      [
        "i",
        "on"
      ],
      [
        "g",
        "e"
      ],
      [
        "r",
        "o"
      ],
      [
        "a",
        "n"
      ],
      [
        "o",
        "re"
      ],
      [
        "t",
        "ail"
      ],
      [
        "<",
        "/"
      ],
      [
        "p",
        "e"
      ],
      [
        "l",
        "o"
      ],
      [
        "ig",
        "n"
      ],
      [
        "ng",
        "th"
      ],
      [
        "ri",
        "te"
      ],
      [
        "v",
        "e"
      ],
      [
        "a",
        "p"
      ],
      [
        "f",
        "ore"
      ],
      [
        "=",
        "'"
      ],
      [
        "\"",
        "]"
      ],
      [
        "u",
        "t"
      ],
      [
        "fore",
        "ign"
      ],
      [
        "as",
        "s"
      ],
      [
        "o",
        "p"
      ],
      [
        "âķĲâķĲâķĲâķĲâķĲâķĲâķĲâķĲâķĲâķĲâķĲâķĲâķĲâķĲâķĲâķĲ",
        "âķĲâķĲâķĲâķĲâķĲâķĲâķĲâķĲâķĲâķĲâķĲâķĲâķĲâķĲâķĲâķĲ"
      ],
      [
        "Ġ",
        "v"
      ],
      [
        "h",
        "el"
      ],
      [
        "di",
        "v"
      ],
      [
        "Ġ\"",
        "\\"
      ],
      [
        "s",
        "how"
      ],
      [
        "o",
        "mp"
      ],
      [
        "ĠR",
        "ail"
      ],
      [
        "a",
        "c"
      ],
      [
        "t",
        "mp"
      ],
      [
        "Ġ",
        "head"
      ],
      [
        "Ġle",
        "ngth"
      ],
      [
        "Ġ",
        "N"
      ],
      [
        "Ġ",
        "h"
      ],
      [
        "i",
        "f"
      ],
      [
        "Ġ",
        "g"
      ],
      [
        "Ġ",
        "#"
      ],
      [
        "hel",
        "l"
      ],
      [
        "t",
        "y"
      ],
      [
        "i",
        "st"
      ],
      [
        "te",
        "r"
      ],
      [
        "ra",
        "m"
      ],
      [
        "ra",
        "in"
      ],
      [
        "Ġst",
        "r"
      ],
      [
        "Ġs",
        "how"
      ],
      [
        "o",
        "g"
      ],
      [
        "0",
        "0"
      ],
      [
        "Ġ",
        "S"
      ],
      [
        "Ġ",
        "d"
      ],
      [
        "u",
        "m"
      ],
      [
        "Ġ",
        "3"
      ],
      [
        "âĶĢâĶĢ",
        "âĶĢâĶĢ"
      ],
      [
        "Ġ",
        "q"
      ],
      [
        "Ġ-",
        "-"
      ],
      [
        "Ġa",
        "n"
      ],
      [
        "l",
        "ass"
      ],
      [
        "'",
        ">"
      ],
      [
        "p",
        "x"
      ],
      [
        "ĠĠ",
        "ĠĠ"
      ],
      [
        "on",
        "t"
      ],
      [
        "Ġc",
        "lass"
      ],
      [
        "Ġe",
        "x"
      ],
      [
        "k",
        "s"
      ],
      [
        "a",
        "me"
      ],
      [
        "ty",
        "pe"
      ],
      [
        "Ġ",
        "C"
      ],
      [
        "l",
        "it"
      ],
      [
        "t",
        "s"
      ],
      [
        "Ġ",
        "/"
      ],
      [
        "Ġpr",
        "og"
      ],
      [
        "f",
        "ile"
      ],
      [
        "Ġ\"",
        "/"
      ],
      [
        "\"",
        ")"
      ],
      [
        "s",
        "on"
      ],
      [
        "Ġx",
        "s"
      ],
      [
        "j",
        "son"
      ],
      [
        "i",
        "r"
      ],
      [
        "u",
        "r"
      ],
      [
        "t",
        "o"
      ],
      [
        "Ġprog",
        "ram"
      ],
      [
        "o",
        "d"
      ],
      [
        "st",
        "r"
      ],
      [
        "Ġa",
        "r"
      ],
      [
        "u",
        "s"
      ],
      [
        "Ġ",
        ">"
      ],
      [
        "at",
        "ch"
      ],
      [
        "ul",
        "t"
      ],
      [
        "l",
        "a"
      ],
      [
        "Ġp",
        "ar"
      ],
      [
        "or",
        "t"
      ],
      [
        "i",
        "z"
      ],
      [
        "]",
        ")"
      ],
      [
        "v",
        "er"
      ],
      [
        "y",
        "s"
      ],
      [
        "Ġ",
        "L"
      ],
      [
        "sp",
        "an"
      ],
      [
        "ge",
        "t"
      ],
      [
        "Ġ",
        "in"
      ],
      [
        "Ġ\"",
        "<"
      ],
      [
        "i",
        "d"
      ],
      [
        "W",
        "rite"
      ],
      [
        "on",
        "s"
      ],
      [
        "on",
        "e"
      ],
      [
        "Ġ",
        "A"
      ],
      [
        "in",
        "e"
      ],
      [
        "omp",
        "ile"
      ],
      [
        "i",
        "c"
      ],
      [
        "Ġ",
        "5"
      ],
      [
        "Ġth",
        "at"
      ],
      [
        "t",
        "rain"
      ],
      [
        "Ġw",
        "rite"
      ],
      [
        "o",
        "ut"
      ],
      [
        "Ġ",
        "P"
      ],
      [
        "Ġ",
        "M"
      ],
      [
        "h",
        "t"
      ],
      [
        "iz",
        "e"
      ],
      [
        "Ġr",
        "un"
      ],
      [
        "o",
        "un"
      ],
      [
        "Ġs",
        "hell"
      ],
      [
        "te",
        "d"
      ],
      [
        "a",
        "g"
      ],
      [
        "t",
        "xt"
      ],
      [
        "a",
        "f"
      ],
      [
        "Ġ",
        "'"
      ],
      [
        "p",
        "end"
      ],
      [
        "))",
        ")"
      ],
      [
        "ri",
        "m"
      ],
      [
        "Ġ",
        "4"
      ],
      [
        "Ġan",
        "d"
      ],
      [
        "Ġt",
        "s"
      ],
      [
        ">",
        "\""
      ],
      [
        "Ġ",
        "de"
      ],
      [
        "in",
        "es"
      ],
      [
        "se",
        "r"
      ],
      [
        "Ġ",
        "T"
      ],
      [
        "o",
        "in"
      ],
      [
        "u",
        "e"
      ],
      [
        "\"]",
        ")"
      ],
      [
        ">",
        "<"
      ],
      [
        "Ġ",
        "<"
      ],
      [
        "e",
        "t"
      ],
      [
        "c",
        "ol"
      ],
      [
        "]",
        "\\"
      ],
      [
        "Ġth",
        "e"
      ],
      [
        "Ġ",
        "."
      ],
      [
        "h",
        "ar"
      ],
      [
        "Ġa",
        "d"
      ],
      [
        "Ġ",
        "int"
      ],
      [
        "j",
        "oin"
      ],
      [
        "i",
        "ve"
      ],
      [
        "p",
        "r"
      ],
      [
        "Ġre",
        "st"
      ],
      [
        "sp",
        "lit"
      ],
      [
        "Ġm",
        "atch"
      ],
      [
        "Ġ\"",
        "\""
      ],
      [
        "Ġc",
        "ode"
      ],
      [
        "Ġ",
        "O"
      ],
      [
        "Ġre",
        "s"
      ],
      [
        "Ġ",
        "â"
      ],
      [
        "o",
        "t"
      ],
      [
        "at",
        "h"
      ],
      [
        ":",
        "\\"
      ],
      [
        "Ġ",
        "*"
      ],
      [
        "a",
        "ir"
      ],
      [
        "Ġc",
        "s"
      ],
      [
        "r",
        "y"
      ],
      [
        "Ġf",
        "or"
      ],
      [
        "ct",
        "ion"
      ],
      [
        "ĠĠ",
        "ĠĠĠĠĠ"
      ],
      [
        "Ġ",
        "E"
      ],
      [
        "c",
        "le"
      ],
      [
        "i",
        "th"
      ],
      [
        "Ġt",
        "rim"
      ],
      [
        "e",
        "d"
      ],
      [
        "ac",
        "k"
      ],
      [
        "Ġ1",
        "0"
      ],
      [
        "e",
        "af"
      ],
      [
        "f",
        "a"
      ],
      [
        "de",
        "r"
      ],
      [
        "Ġl",
        "ist"
      ],
      [
        "p",
        "ro"
      ],
      [
        "Ġc",
        "at"
      ],
      [
        "c",
        "c"
      ],
      [
        "s",
        "hell"
      ],
      [
        "al",
        "l"
      ],
      [
        "2",
        "9"
      ],
      [
        "i",
        "b"
      ],
      [
        "k",
        "e"
      ],
      [
        ">",
        "</"
      ],
      [
        "Ġl",
        "d"
      ],
      [
        "k",
        "en"
      ],
      [
        "âĶĢâĶĢâĶĢâĶĢ",
        "âĶĢâĶĢâĶĢâĶĢ"
      ],
      [
        "Ġn",
        "ame"
      ],
      [
        "t",
        "Write"
      ],
      [
        "Ġs",
        "p"
      ],
      [
        "re",
        "s"
      ],
      [
        "e",
        "x"
      ],
      [
        "1",
        "6"
      ],
      [
        "mp",
        "le"
      ],
      [
        "ul",
        "l"
      ],
      [
        "ve",
        "st"
      ],
      [
        "f",
        "f"
      ],
      [
        "v",
        "al"
      ],
      [
        "a",
        "te"
      ],
      [
        "ont",
        "ent"
      ],
      [
        "Ġl",
        "ines"
      ],
      [
        "en",
        "v"
      ],
      [
        "a",
        "ge"
      ],
      [
        "Ġ",
        "op"
      ],
      [
        "Ġl",
        "c"
      ],
      [
        "col",
        "or"
      ],
      [
        "}",
        "\""
      ],
      [
        "o",
        "me"
      ],
      [
        "ad",
        "d"
      ],
      [
        "c",
        "k"
      ],
      [
        "âķĲâķĲâķĲâķĲ",
        "âķĲâķĲ"
      ],
      [
        "ma",
        "p"
      ],
      [
        "Ġp",
        "ort"
      ],
      [
        "Ġt",
        "as"
      ],
      [
        "t",
        "ion"
      ],
      [
        "oun",
        "t"
      ],
      [
        "]",
        ","
      ],
      [
        "Ġ",
        "âķĲâķĲâķĲâķĲâķĲâķĲâķĲâķĲâķĲâķĲâķĲâķĲâķĲâķĲâķĲâķĲâķĲâķĲâķĲâķĲâķĲâķĲâķĲâķĲâķĲâķĲâķĲâķĲâķĲâķĲâķĲâķĲ"
      ],
      [
        "âķĲâķĲâķĲâķĲâķĲâķĲâķĲâķĲâķĲâķĲâķĲâķĲâķĲâķĲâķĲâķĲâķĲâķĲâķĲâķĲâķĲâķĲâķĲâķĲâķĲâķĲâķĲâķĲâķĲâķĲâķĲâķĲ",
        "âķĲâķĲâķĲâķĲâķĲâķĲâķĲâķĲ"
      ],
      [
        "ĠâķĲâķĲâķĲâķĲâķĲâķĲâķĲâķĲâķĲâķĲâķĲâķĲâķĲâķĲâķĲâķĲâķĲâķĲâķĲâķĲâķĲâķĲâķĲâķĲâķĲâķĲâķĲâķĲâķĲâķĲâķĲâķĲ",
        "âķĲâķĲâķĲâķĲâķĲâķĲâķĲâķĲâķĲâķĲâķĲâķĲâķĲâķĲâķĲâķĲâķĲâķĲâķĲâķĲâķĲâķĲâķĲâķĲâķĲâķĲâķĲâķĲâķĲâķĲâķĲâķĲâķĲâķĲâķĲâķĲâķĲâķĲâķĲâķĲ"
      ],
      [
        "ar",
        "g"
      ],
      [
        "Ġn",
        "ode"
      ],
      [
        "u",
        "p"
      ],
      [
        "i",
        "s"
      ],
      [
        "Ġar",
        "g"
      ],
      [
        "1",
        "0"
      ],
      [
        "Ġs",
        "ys"
      ],
      [
        "c",
        "ode"
      ],
      [
        "es",
        "c"
      ],
      [
        "o",
        "w"
      ],
      [
        "Ġ",
        "y"
      ],
      [
        "od",
        "y"
      ],
      [
        ":",
        "#"
      ],
      [
        "Ġpar",
        "ts"
      ],
      [
        "ĠâķĲâķĲâķĲâķĲâķĲâķĲâķĲâķĲâķĲâķĲâķĲâķĲâķĲâķĲâķĲâķĲâķĲâķĲâķĲâķĲâķĲâķĲâķĲâķĲâķĲâķĲâķĲâķĲâķĲâķĲâķĲâķĲâķĲâķĲâķĲâķĲâķĲâķĲâķĲâķĲâķĲâķĲâķĲâķĲâķĲâķĲâķĲâķĲâķĲâķĲâķĲâķĲâķĲâķĲâķĲâķĲâķĲâķĲâķĲâķĲâķĲâķĲâķĲâķĲâķĲâķĲâķĲâķĲâķĲâķĲâķĲâķĲ",
        "âķĲâķĲâķĲâķĲâķĲâķĲ"
      ],
      [
        "ra",
        "te"
      ],
      [
        "u",
        "b"
      ],
      [
        "o",
        "m"
      ],
      [
        "ol",
        "s"
      ],
      [
        "Ġâ",
        "Ģ"
      ],
      [
        "Ġ",
        "&"
      ],
      [
        "Ġv",
        "al"
      ],
      [
        ")",
        "\\"
      ],
      [
        "m",
        "ent"
      ],
      [
        "Ġa",
        "p"
      ],
      [
        "ĠâĢ",
        "Ķ"
      ],
      [
        "m",
        "d"
      ],
      [
        "Ġc",
        "ompile"
      ],
      [
        "Ġ\"",
        "."
      ],
      [
        "Ġ",
        "F"
      ],
      [
        "Ġa",
        "cc"
      ],
      [
        "Ġf",
        "ile"
      ],
      [
        "Ġto",
        "ks"
      ],
      [
        "Ġ",
        "\\\""
      ],
      [
        "ĠN",
        "one"
      ],
      [
        "de",
        "v"
      ],
      [
        "n",
        "ull"
      ],
      [
        "re",
        "e"
      ],
      [
        "Ġ",
        "G"
      ],
      [
        "te",
        "st"
      ],
      [
        "ol",
        "d"
      ],
      [
        "Ġn",
        "e"
      ],
      [
        "Ġ",
        "env"
      ],
      [
        "le",
        "ngth"
      ],
      [
        "Ġs",
        "l"
      ],
      [
        "n",
        "s"
      ],
      [
        "l",
        "ine"
      ],
      [
        "Ġre",
        "ad"
      ],
      [
        "Ġ",
        "o"
      ],
      [
        "en",
        "e"
      ],
      [
        "Ġ",
        "join"
      ],
      [
        ">",
        "/"
      ],
      [
        "l",
        "y"
      ],
      [
        "n",
        "ame"
      ],
      [
        "Ġs",
        "e"
      ],
      [
        "6",
        "4"
      ],
      [
        "Ġ",
        "{"
      ],
      [
        "ch",
        "ar"
      ],
      [
        ".",
        "."
      ],
      [
        "Ġw",
        "ith"
      ],
      [
        "Ġ(",
        "\""
      ],
      [
        "v",
        "el"
      ],
      [
        "i",
        "te"
      ],
      [
        "Ġ|",
        "|"
      ],
      [
        "Ġa",
        "s"
      ],
      [
        "\\",
        "\\"
      ],
      [
        "ĠS",
        "ome"
      ],
      [
        "i",
        "me"
      ],
      [
        "v",
        "es"
      ],
      [
        "Ġc",
        "on"
      ],
      [
        "Ġc",
        "ons"
      ],
      [
        "y",
        "cle"
      ],
      [
        "ap",
        "pend"
      ],
      [
        "d",
        "at"
      ],
      [
        ")",
        ","
      ],
      [
        "ent",
        "ry"
      ],
      [
        "s",
        "ize"
      ],
      [
        "Ġ",
        "on"
      ],
      [
        "Ġh",
        "ar"
      ],
      [
        "ĠN",
        "ode"
      ],
      [
        "c",
        "e"
      ],
      [
        "o",
        "al"
      ],
      [
        "Ġ\"",
        ":"
      ],
      [
        "Ġl",
        "a"
      ],
      [
        "Ġi",
        "s"
      ],
      [
        "ar",
        "t"
      ],
      [
        "Ġld",
        "r"
      ],
      [
        "Ġpar",
        "se"
      ],
      [
        "f",
        "ont"
      ],
      [
        "c",
        "ho"
      ],
      [
        "8",
        "0"
      ],
      [
        "Ġp",
        "ath"
      ],
      [
        "char",
        "s"
      ],
      [
        "t",
        "p"
      ],
      [
        "y",
        "le"
      ],
      [
        "il",
        "ter"
      ],
      [
        "m",
        "l"
      ],
      [
        "L",
        "eaf"
      ],
      [
        "b",
        "o"
      ],
      [
        "Ġ",
        "ra"
      ],
      [
        "t",
        "al"
      ],
      [
        "Ġ",
        "H"
      ],
      [
        "Ġt",
        "rain"
      ],
      [
        "he",
        "ck"
      ],
      [
        "ar",
        "d"
      ],
      [
        "Ġad",
        "d"
      ],
      [
        "s",
        "c"
      ],
      [
        "l",
        "ist"
      ],
      [
        "or",
        "der"
      ],
      [
        "\\\"",
        ":"
      ],
      [
        "m",
        "s"
      ],
      [
        "Ġb",
        "ody"
      ],
      [
        "D",
        "e"
      ],
      [
        "Ġt",
        "e"
      ],
      [
        "ar",
        "se"
      ],
      [
        "un",
        "d"
      ],
      [
        "e",
        "ct"
      ],
      [
        "at",
        "ive"
      ],
      [
        "o",
        "v"
      ],
      [
        "Ġre",
        "sp"
      ],
      [
        "od",
        "el"
      ],
      [
        "Ġsp",
        "lit"
      ],
      [
        "ng",
        "e"
      ],
      [
        "Ġres",
        "ult"
      ],
      [
        "se",
        "l"
      ],
      [
        "2",
        "0"
      ],
      [
        "i",
        "p"
      ],
      [
        "Ġre",
        "t"
      ],
      [
        "er",
        "r"
      ],
      [
        "Ġ",
        "B"
      ],
      [
        "Ġl",
        "st"
      ],
      [
        "Ġ&",
        "&"
      ],
      [
        "in",
        "d"
      ],
      [
        "Ġto",
        "ols"
      ],
      [
        "sel",
        "f"
      ],
      [
        "c",
        "l"
      ],
      [
        "Ġ",
        "out"
      ],
      [
        "Ġl",
        "o"
      ],
      [
        "ma",
        "x"
      ],
      [
        "ro",
        "und"
      ],
      [
        "Ġap",
        "pend"
      ],
      [
        "v",
        "ar"
      ],
      [
        "u",
        "re"
      ],
      [
        "un",
        "ction"
      ],
      [
        "a",
        "se"
      ],
      [
        "Ġm",
        "ov"
      ],
      [
        "Ġa",
        "l"
      ],
      [
        "a",
        "b"
      ],
      [
        "st",
        "at"
      ],
      [
        "t",
        "r"
      ],
      [
        "es",
        "s"
      ],
      [
        "ro",
        "m"
      ],
      [
        "fa",
        "ult"
      ],
      [
        "3",
        "0"
      ],
      [
        "Ġi",
        "t"
      ],
      [
        "a",
        "re"
      ],
      [
        "Ġ2",
        "0"
      ],
      [
        "lo",
        "c"
      ],
      [
        "Ġ",
        "I"
      ],
      [
        "Ġ(",
        "\\"
      ],
      [
        "ke",
        "y"
      ],
      [
        "Ġ",
        "k"
      ],
      [
        "b",
        "ack"
      ],
      [
        ")",
        ";"
      ],
      [
        "ac",
        "c"
      ],
      [
        "a",
        "mple"
      ],
      [
        "Ġ",
        "of"
      ],
      [
        "mp",
        "t"
      ],
      [
        "Ġe",
        "cho"
      ],
      [
        "ene",
        "rate"
      ],
      [
        "Ġ=",
        "\\"
      ],
      [
        "har",
        "vest"
      ],
      [
        "p",
        "l"
      ],
      [
        "at",
        "ion"
      ],
      [
        "c",
        "ontent"
      ],
      [
        "u",
        "il"
      ],
      [
        "2",
        "4"
      ],
      [
        "Ġ",
        "u"
      ],
      [
        "f",
        "or"
      ],
      [
        "r",
        "c"
      ],
      [
        "Ġ[",
        "]"
      ],
      [
        "c",
        "ompile"
      ],
      [
        "as",
        "h"
      ],
      [
        "Ġf",
        "rom"
      ],
      [
        "'",
        ","
      ],
      [
        "g",
        "en"
      ],
      [
        "Ġc",
        "md"
      ],
      [
        "t",
        "ime"
      ],
      [
        "Ġf",
        "old"
      ],
      [
        "Ġp",
        "ass"
      ],
      [
        "p",
        "arse"
      ],
      [
        "t",
        "ra"
      ],
      [
        "ves",
        "ted"
      ],
      [
        "Ġst",
        "yle"
      ],
      [
        ".",
        "\""
      ],
      [
        "Ġt",
        "g"
      ],
      [
        "c",
        "ur"
      ],
      [
        "b",
        "order"
      ],
      [
        "Ġtas",
        "k"
      ],
      [
        "f",
        "t"
      ],
      [
        "ho",
        "st"
      ],
      [
        "Ġg",
        "ap"
      ],
      [
        "Ġ",
        "U"
      ],
      [
        "to",
        "ken"
      ],
      [
        "Ġl",
        "ine"
      ],
      [
        "Ġstr",
        "ing"
      ],
      [
        "De",
        "fault"
      ],
      [
        "ver",
        "se"
      ],
      [
        "c",
        "on"
      ],
      [
        "t",
        "as"
      ],
      [
        "Ġ",
        "di"
      ],
      [
        "an",
        "d"
      ],
      [
        "Ġh",
        "t"
      ],
      [
        "O",
        "r"
      ],
      [
        "Ġ\"",
        "\\\""
      ],
      [
        "ment",
        "s"
      ],
      [
        ">",
        "&"
      ],
      [
        "ĠL",
        "eaf"
      ],
      [
        "1",
        "1"
      ],
      [
        "n",
        "main"
      ],
      [
        "ap",
        "ter"
      ],
      [
        "b",
        "l"
      ],
      [
        "3",
        "2"
      ],
      [
        "Ġc",
        "har"
      ],
      [
        "res",
        "s"
      ],
      [
        "=",
        "\""
      ],
      [
        "q",
        "u"
      ],
      [
        "re",
        "p"
      ],
      [
        "get",
        "Or"
      ],
      [
        ":",
        "/"
      ],
      [
        "'>",
        "<"
      ],
      [
        "d",
        "d"
      ],
      [
        "Ġto",
        "ken"
      ],
      [
        "âĶĢâĶĢâĶĢâĶĢâĶĢâĶĢâĶĢâĶĢ",
        "âĶĢâĶĢâĶĢâĶĢâĶĢâĶĢâĶĢâĶĢ"
      ],
      [
        "Ġex",
        "pr"
      ],
      [
        "ig",
        "ht"
      ],
      [
        "Ġ",
        "7"
      ],
      [
        "arg",
        "in"
      ],
      [
        "getOr",
        "Default"
      ],
      [
        "Ġ",
        "6"
      ],
      [
        "al",
        "se"
      ],
      [
        "Ġc",
        "ur"
      ],
      [
        "c",
        "om"
      ],
      [
        "i",
        "x"
      ],
      [
        "Ġ1",
        "00"
      ],
      [
        "Ġtas",
        "ks"
      ],
      [
        "Ġ>",
        "="
      ],
      [
        "ac",
        "e"
      ],
      [
        "c",
        "ons"
      ],
      [
        "ic",
        "e"
      ],
      [
        "Ġb",
        "l"
      ],
      [
        "Ġ",
        "json"
      ],
      [
        "A",
        "I"
      ],
      [
        "))",
        "))"
      ],
      [
        "g",
        "round"
      ],
      [
        "p",
        "tion"
      ],
      [
        "c",
        "ount"
      ],
      [
        "p",
        "lo"
      ],
      [
        "p",
        "ut"
      ],
      [
        "2",
        "5"
      ],
      [
        "te",
        "m"
      ],
      [
        "Ġg",
        "oal"
      ],
      [
        "Ġ",
        "me"
      ],
      [
        "Ġprint",
        "s"
      ],
      [
        "Ġ\"",
        "</"
      ],
      [
        "train",
        "ing"
      ],
      [
        "Ġt",
        "ail"
      ],
      [
        "Ġc",
        "omp"
      ],
      [
        "ra",
        "ct"
      ],
      [
        "Ġarg",
        "s"
      ],
      [
        "Ġ",
        "D"
      ],
      [
        "j",
        "ect"
      ],
      [
        "(",
        "'"
      ],
      [
        "O",
        "N"
      ],
      [
        "p",
        "er"
      ],
      [
        "d",
        "s"
      ],
      [
        "Ġ",
        "~"
      ],
      [
        "mp",
        "ty"
      ],
      [
        "h",
        "a"
      ],
      [
        "1",
        "00"
      ],
      [
        "json",
        "l"
      ],
      [
        "Ġtrain",
        "ing"
      ],
      [
        "lo",
        "g"
      ],
      [
        "Ġp",
        "re"
      ],
      [
        "le",
        "t"
      ],
      [
        "err",
        "or"
      ],
      [
        "Ġ",
        "J"
      ],
      [
        "Ġs",
        "er"
      ],
      [
        "Ġs",
        "um"
      ],
      [
        "p",
        "ath"
      ],
      [
        "Ġne",
        "w"
      ],
      [
        "z",
        "er"
      ],
      [
        "Ġ~",
        "/"
      ],
      [
        ":/",
        "/"
      ],
      [
        "n",
        "t"
      ],
      [
        "Ġc",
        "ount"
      ],
      [
        "plo",
        "y"
      ],
      [
        "Ġ",
        "map"
      ],
      [
        "i",
        "m"
      ],
      [
        "as",
        "on"
      ],
      [
        "Ġpr",
        "omp"
      ],
      [
        "tra",
        "ns"
      ],
      [
        "re",
        "ad"
      ],
      [
        "c",
        "ycle"
      ],
      [
        "Ġpromp",
        "t"
      ],
      [
        "=",
        "="
      ],
      [
        "n",
        "ative"
      ],
      [
        "Ġle",
        "vel"
      ],
      [
        "Ġt",
        "ag"
      ],
      [
        "ra",
        "p"
      ],
      [
        "Ġi",
        "mple"
      ],
      [
        "Ġ\":",
        "\","
      ],
      [
        "s",
        "ys"
      ],
      [
        "u",
        "de"
      ],
      [
        "Ġi",
        "d"
      ],
      [
        "p",
        "ort"
      ],
      [
        "E",
        "R"
      ],
      [
        "lo",
        "w"
      ],
      [
        "ĠĠĠĠ",
        "ĠĠĠĠ"
      ],
      [
        "g",
        "ap"
      ],
      [
        "P",
        "air"
      ],
      [
        "a",
        "ct"
      ],
      [
        "ht",
        "ml"
      ],
      [
        "Ġto",
        "tal"
      ],
      [
        "Ġf",
        "ilter"
      ],
      [
        "v",
        "g"
      ],
      [
        "Ġ4",
        "2"
      ],
      [
        "Ġv",
        "i"
      ],
      [
        "Ġimple",
        "ments"
      ],
      [
        ">",
        "\","
      ],
      [
        "N",
        "ode"
      ],
      [
        "u",
        "st"
      ],
      [
        "id",
        "th"
      ],
      [
        "Ġf",
        "unction"
      ],
      [
        "Ġ",
        "9"
      ],
      [
        "Ġc",
        "heck"
      ],
      [
        "ra",
        "nge"
      ],
      [
        "Ġhar",
        "vest"
      ],
      [
        "ample",
        "s"
      ],
      [
        "1",
        "2"
      ],
      [
        "Ġ",
        "us"
      ],
      [
        "la",
        "y"
      ],
      [
        "u",
        "te"
      ],
      [
        "Ġan",
        "s"
      ],
      [
        "us",
        "h"
      ],
      [
        "Ġd",
        "at"
      ],
      [
        "pro",
        "g"
      ],
      [
        "el",
        "f"
      ],
      [
        "=",
        "\\\""
      ],
      [
        "Ġchar",
        "s"
      ],
      [
        "S",
        "T"
      ],
      [
        "Ġte",
        "st"
      ],
      [
        "Ġvi",
        "a"
      ],
      [
        "s",
        "h"
      ],
      [
        "l",
        "d"
      ],
      [
        "4",
        "1"
      ],
      [
        "(",
        "--"
      ],
      [
        "Ġ(",
        "["
      ],
      [
        "Ġn",
        "um"
      ],
      [
        "r",
        "un"
      ],
      [
        "o",
        "ub"
      ],
      [
        "t",
        "ag"
      ],
      [
        "a",
        "ram"
      ],
      [
        "e",
        "c"
      ],
      [
        "m",
        "argin"
      ],
      [
        "oub",
        "le"
      ],
      [
        "4",
        "0"
      ],
      [
        "f",
        "le"
      ],
      [
        "k",
        "Pair"
      ],
      [
        "l",
        "m"
      ],
      [
        "ject",
        "s"
      ],
      [
        "te",
        "p"
      ],
      [
        "oun",
        "d"
      ],
      [
        "ex",
        "pr"
      ],
      [
        "o",
        "c"
      ],
      [
        "ag",
        "ent"
      ],
      [
        "ĠO",
        "ption"
      ],
      [
        "Ġl",
        "og"
      ],
      [
        "arg",
        "s"
      ],
      [
        "back",
        "ground"
      ],
      [
        "m",
        "odel"
      ],
      [
        "Ġ",
        "get"
      ],
      [
        "Ġcompile",
        "r"
      ],
      [
        "ra",
        "tion"
      ],
      [
        "Ġa",
        "t"
      ],
      [
        "Ġ.",
        "/"
      ],
      [
        "pro",
        "jects"
      ],
      [
        "Ġ\"",
        "#"
      ],
      [
        "le",
        "dat"
      ],
      [
        "la",
        "ude"
      ],
      [
        "Ġ",
        "key"
      ],
      [
        "Ġde",
        "sc"
      ],
      [
        "Ġse",
        "p"
      ],
      [
        "p",
        "o"
      ],
      [
        "y",
        "pe"
      ],
      [
        "b",
        "in"
      ],
      [
        "ri",
        "es"
      ],
      [
        "S",
        "ON"
      ],
      [
        "ow",
        "n"
      ],
      [
        "m",
        "o"
      ],
      [
        "Ġc",
        "ol"
      ],
      [
        "m",
        "ar"
      ],
      [
        "Ġw",
        "h"
      ],
      [
        "AI",
        "L"
      ],
      [
        "g",
        "ht"
      ],
      [
        "c",
        "p"
      ],
      [
        ">",
        "\\"
      ],
      [
        "en",
        "ch"
      ],
      [
        "as",
        "m"
      ],
      [
        "ht",
        "tp"
      ],
      [
        "âķĲâķĲ",
        "âķĲ"
      ],
      [
        "Ġw",
        "or"
      ],
      [
        "pe",
        "c"
      ],
      [
        "q",
        "ue"
      ],
      [
        "Ġ",
        "esc"
      ],
      [
        "il",
        "l"
      ],
      [
        "sp",
        "lay"
      ],
      [
        "Ġt",
        "r"
      ],
      [
        "Ġc",
        "g"
      ],
      [
        "Ġht",
        "tp"
      ],
      [
        "Ġre",
        "verse"
      ],
      [
        "'",
        ")"
      ],
      [
        "]",
        "))"
      ],
      [
        "Ġg",
        "enerate"
      ],
      [
        "uil",
        "d"
      ],
      [
        "ĠJ",
        "SON"
      ],
      [
        "Ġc",
        "all"
      ],
      [
        "loc",
        "al"
      ],
      [
        "I",
        "N"
      ],
      [
        "er",
        "s"
      ],
      [
        "it",
        "y"
      ],
      [
        "m",
        "b"
      ],
      [
        "w",
        "idth"
      ],
      [
        "se",
        "t"
      ],
      [
        "5",
        "0"
      ],
      [
        "it",
        "ion"
      ],
      [
        "Ġst",
        "art"
      ],
      [
        "Ġ<",
        "="
      ],
      [
        "n",
        "e"
      ],
      [
        "Ġ",
        "8"
      ],
      [
        "Ġc",
        "ontent"
      ],
      [
        "Ġf",
        "alse"
      ],
      [
        "pec",
        "ted"
      ],
      [
        "ir",
        "cle"
      ],
      [
        "Ġ",
        "$"
      ],
      [
        "xt",
        "ract"
      ],
      [
        "Ġn",
        "o"
      ],
      [
        "a",
        "it"
      ],
      [
        "ri",
        "ght"
      ],
      [
        "\"]",
        ","
      ],
      [
        "ĠR",
        "e"
      ],
      [
        "Ġs",
        "rc"
      ],
      [
        "4",
        "2"
      ],
      [
        "re",
        "f"
      ],
      [
        "Ġb",
        "y"
      ],
      [
        "G",
        "E"
      ],
      [
        "ap",
        "p"
      ],
      [
        "ĠâķĲâķĲâķĲâķĲâķĲâķĲâķĲâķĲâķĲâķĲâķĲâķĲâķĲâķĲâķĲâķĲâķĲâķĲâķĲâķĲâķĲâķĲâķĲâķĲâķĲâķĲâķĲâķĲâķĲâķĲâķĲâķĲâķĲâķĲâķĲâķĲâķĲâķĲâķĲâķĲâķĲâķĲâķĲâķĲâķĲâķĲâķĲâķĲâķĲâķĲâķĲâķĲâķĲâķĲâķĲâķĲâķĲâķĲâķĲâķĲâķĲâķĲâķĲâķĲâķĲâķĲâķĲâķĲâķĲâķĲâķĲâķĲâķĲâķĲâķĲâķĲâķĲâķĲ",
        "âķĲ"
      ],
      [
        "lo",
        "at"
      ],
      [
        "Ġ",
        "max"
      ],
      [
        "a",
        "ch"
      ],
      [
        "for",
        "m"
      ],
      [
        "hel",
        "lo"
      ],
      [
        "pr",
        "int"
      ],
      [
        "g",
        "it"
      ],
      [
        "Ġ([",
        "\""
      ],
      [
        "{",
        "\","
      ],
      [
        "Ġh",
        "as"
      ],
      [
        "Ġb",
        "ack"
      ],
      [
        "ĠS",
        "t"
      ],
      [
        "8",
        "6"
      ],
      [
        "c",
        "he"
      ],
      [
        "s",
        "age"
      ],
      [
        "}",
        ","
      ],
      [
        "Ġ",
        "or"
      ],
      [
        "le",
        "n"
      ],
      [
        "n",
        "um"
      ],
      [
        "Ġne",
        "xt"
      ],
      [
        "Ġ\"\\\"",
        "\""
      ],
      [
        "s",
        "k"
      ],
      [
        "ed",
        "s"
      ],
      [
        "Ġop",
        "t"
      ],
      [
        "ro",
        "le"
      ],
      [
        "a",
        "ve"
      ],
      [
        "add",
        "ing"
      ],
      [
        "cl",
        "s"
      ],
      [
        "l",
        "ines"
      ],
      [
        "1",
        "5"
      ],
      [
        "on",
        "o"
      ],
      [
        "w",
        "he"
      ],
      [
        "a",
        "w"
      ],
      [
        "Ġa",
        "f"
      ],
      [
        "c",
        "s"
      ],
      [
        "ĠA",
        "dd"
      ],
      [
        "b",
        "ody"
      ],
      [
        "Ġhar",
        "vested"
      ],
      [
        "\\",
        "\","
      ],
      [
        "ly",
        "whe"
      ],
      [
        "lywhe",
        "el"
      ],
      [
        "5",
        "5"
      ],
      [
        "p",
        "ass"
      ],
      [
        "te",
        "mpt"
      ],
      [
        "ma",
        "n"
      ],
      [
        "ent",
        "ries"
      ],
      [
        "tas",
        "ks"
      ],
      [
        "=",
        "\","
      ],
      [
        "A",
        "R"
      ],
      [
        "l",
        "ib"
      ],
      [
        "2",
        "2"
      ],
      [
        "Ġ",
        "un"
      ],
      [
        "he",
        "ight"
      ],
      [
        "\"",
        "))"
      ],
      [
        "Ġfile",
        "s"
      ],
      [
        "n",
        "ing"
      ],
      [
        ")",
        "}"
      ],
      [
        "s",
        "l"
      ],
      [
        "A",
        "T"
      ],
      [
        "c",
        "all"
      ],
      [
        "di",
        "splay"
      ],
      [
        "lo",
        "s"
      ],
      [
        "ut",
        "o"
      ],
      [
        "4",
        "8"
      ],
      [
        "Ġf",
        "act"
      ],
      [
        "Ġal",
        "l"
      ],
      [
        "b",
        "ench"
      ],
      [
        "w",
        "e"
      ],
      [
        "Ġle",
        "ft"
      ],
      [
        "Ġc",
        "ycle"
      ],
      [
        "le",
        "vel"
      ],
      [
        "token",
        "ize"
      ],
      [
        "ad",
        "apter"
      ],
      [
        "al",
        "ign"
      ],
      [
        "v",
        "en"
      ],
      [
        "Ġf",
        "ail"
      ],
      [
        "ĠC",
        "ons"
      ],
      [
        "a",
        "in"
      ],
      [
        "f",
        "ilter"
      ],
      [
        "er",
        "ge"
      ],
      [
        "Ġex",
        "it"
      ],
      [
        "Ġarg",
        "v"
      ],
      [
        "Ġtr",
        "ue"
      ],
      [
        "Ġ",
        "entries"
      ],
      [
        "ĠL",
        "ist"
      ],
      [
        "f",
        "ail"
      ],
      [
        "to",
        "ols"
      ],
      [
        "Ġ",
        "W"
      ],
      [
        "di",
        "r"
      ],
      [
        "ro",
        "w"
      ],
      [
        "re",
        "sp"
      ],
      [
        "P",
        "A"
      ],
      [
        "r",
        "r"
      ],
      [
        "lo",
        "ad"
      ],
      [
        "ser",
        "s"
      ],
      [
        "e",
        "p"
      ],
      [
        "Ĩ",
        "Ĵ"
      ],
      [
        "p",
        "u"
      ],
      [
        "stat",
        "us"
      ],
      [
        "\\\":",
        "\\\""
      ],
      [
        ")",
        "\""
      ],
      [
        "pro",
        "mpt"
      ],
      [
        "y",
        "th"
      ],
      [
        "ĠM",
        "kPair"
      ],
      [
        "se",
        "ction"
      ],
      [
        "Ġ",
        "%"
      ],
      [
        "i",
        "al"
      ],
      [
        "c",
        "omp"
      ],
      [
        "Ġst",
        "at"
      ],
      [
        "\"]",
        "))"
      ],
      [
        "Ġex",
        "amples"
      ],
      [
        "Ġâ",
        "ĨĴ"
      ],
      [
        "ct",
        "or"
      ],
      [
        "Ġn",
        "ot"
      ],
      [
        "o",
        "ur"
      ],
      [
        "en",
        "ter"
      ],
      [
        "bo",
        "x"
      ],
      [
        "6",
        "6"
      ],
      [
        "re",
        "st"
      ],
      [
        "Ġ\"",
        "'"
      ],
      [
        ":",
        "'"
      ],
      [
        "Ġe",
        "le"
      ],
      [
        "se",
        "s"
      ],
      [
        ";",
        "\""
      ],
      [
        "Ġp",
        "aram"
      ],
      [
        "Ġs",
        "ize"
      ],
      [
        "n",
        "ode"
      ],
      [
        "Ġs",
        "vg"
      ],
      [
        "ĠN",
        "il"
      ],
      [
        "ĠP",
        "air"
      ],
      [
        "ser",
        "ver"
      ],
      [
        "ab",
        "le"
      ],
      [
        "f",
        "ib"
      ],
      [
        "de",
        "ploy"
      ],
      [
        "Ġ",
        "main"
      ],
      [
        "Ġs",
        "elf"
      ],
      [
        "Ġ",
        "error"
      ],
      [
        "re",
        "train"
      ],
      [
        "sp",
        "ace"
      ],
      [
        "\",",
        "\""
      ],
      [
        ":",
        "\","
      ],
      [
        "b",
        "r"
      ],
      [
        "s",
        "um"
      ],
      [
        "ĠN",
        "o"
      ],
      [
        "Ġla",
        "st"
      ],
      [
        "Ġld",
        "p"
      ],
      [
        "o",
        "k"
      ],
      [
        "Ġp",
        "air"
      ],
      [
        "ĠT",
        "ree"
      ],
      [
        "u",
        "age"
      ],
      [
        "ng",
        "uage"
      ],
      [
        "t",
        "rim"
      ],
      [
        "ĠE",
        "mpty"
      ],
      [
        "Ġ#",
        "-"
      ],
      [
        "Ġra",
        "w"
      ],
      [
        "c",
        "d"
      ],
      [
        "Ġ\"",
        "_"
      ],
      [
        "ri",
        "p"
      ],
      [
        "ri",
        "f"
      ],
      [
        "'>",
        "\""
      ],
      [
        "Ġw",
        "s"
      ],
      [
        "ir",
        "st"
      ],
      [
        "1",
        "4"
      ],
      [
        "on",
        "se"
      ],
      [
        "yth",
        "on"
      ],
      [
        "c",
        "ard"
      ],
      [
        "i",
        "mp"
      ],
      [
        "Ġdat",
        "a"
      ],
      [
        "dat",
        "a"
      ],
      [
        "ĠH",
        "T"
      ],
      [
        "Ġc",
        "om"
      ],
      [
        "Ġa",
        "re"
      ],
      [
        "Ġ\",",
        "\","
      ],
      [
        "Ġh",
        "ref"
      ],
      [
        "PA",
        "GE"
      ],
      [
        "a",
        "der"
      ],
      [
        "Ġ",
        "j"
      ],
      [
        "Ġ",
        "V"
      ],
      [
        "Ġ\"\\",
        "\\"
      ],
      [
        "Ġser",
        "ver"
      ],
      [
        "m",
        "y"
      ],
      [
        "t",
        "op"
      ],
      [
        "or",
        "y"
      ],
      [
        "w",
        "or"
      ],
      [
        "a",
        "a"
      ],
      [
        "w",
        "ith"
      ],
      [
        "qu",
        "are"
      ],
      [
        "n",
        "l"
      ],
      [
        "Ġread",
        "s"
      ],
      [
        "Ġf",
        "ib"
      ],
      [
        "Ġus",
        "ing"
      ],
      [
        "b",
        "el"
      ],
      [
        "re",
        "ason"
      ],
      [
        "o",
        "u"
      ],
      [
        "se",
        "c"
      ],
      [
        "e",
        "q"
      ],
      [
        "le",
        "ft"
      ],
      [
        "ag",
        "es"
      ],
      [
        "ra",
        "di"
      ],
      [
        "i",
        "el"
      ],
      [
        "i",
        "an"
      ],
      [
        "m",
        "atch"
      ],
      [
        "P",
        "U"
      ],
      [
        "R",
        "A"
      ],
      [
        "le",
        "ct"
      ],
      [
        "se",
        "d"
      ],
      [
        "Ġex",
        "pected"
      ],
      [
        "N",
        "um"
      ],
      [
        "m",
        "ul"
      ],
      [
        "Ġ",
        "right"
      ],
      [
        "f",
        "old"
      ],
      [
        "2",
        "7"
      ],
      [
        "L",
        "E"
      ],
      [
        "p",
        "adding"
      ],
      [
        "Ġt",
        "ree"
      ],
      [
        "b",
        "ot"
      ],
      [
        "in",
        "u"
      ],
      [
        "ar",
        "y"
      ],
      [
        "to",
        "m"
      ],
      [
        "Ġwrite",
        "s"
      ],
      [
        "Ġde",
        "cls"
      ],
      [
        "!",
        "\\"
      ],
      [
        "]",
        "!\\"
      ],
      [
        "c",
        "enter"
      ],
      [
        "ĠU",
        "sage"
      ],
      [
        "n",
        "el"
      ],
      [
        "r",
        "t"
      ],
      [
        "en",
        "a"
      ],
      [
        "Ġm",
        "odel"
      ],
      [
        "Ġ",
        "}"
      ],
      [
        "st",
        "art"
      ],
      [
        "cur",
        "l"
      ],
      [
        "g",
        "t"
      ],
      [
        "z",
        "e"
      ],
      [
        "Ġs",
        "ol"
      ],
      [
        "Ġcol",
        "or"
      ],
      [
        "n",
        "one"
      ],
      [
        "trans",
        "form"
      ],
      [
        "m",
        "il"
      ],
      [
        "n",
        "o"
      ],
      [
        "Ġ",
        "he"
      ],
      [
        "Ġad",
        "apter"
      ],
      [
        "fa",
        "mil"
      ],
      [
        "tas",
        "k"
      ],
      [
        "famil",
        "y"
      ],
      [
        "di",
        "git"
      ],
      [
        "\"",
        ")))"
      ],
      [
        "Ġn",
        "m"
      ],
      [
        "D",
        "T"
      ],
      [
        "ĠĠĠĠ",
        "ĠĠĠĠĠ"
      ],
      [
        "a",
        "m"
      ],
      [
        "s",
        "ion"
      ],
      [
        "Ġg",
        "ene"
      ],
      [
        "l",
        "s"
      ],
      [
        "Ġr",
        "t"
      ],
      [
        "bot",
        "tom"
      ],
      [
        "Ġc",
        "h"
      ],
      [
        "Ġ3",
        "0"
      ],
      [
        "Ġra",
        "nge"
      ],
      [
        "rep",
        "air"
      ],
      [
        "Ġt",
        "ype"
      ],
      [
        "la",
        "te"
      ],
      [
        "ĠO",
        "K"
      ],
      [
        "e",
        "st"
      ],
      [
        "f",
        "loat"
      ],
      [
        "Ġe",
        "ach"
      ],
      [
        "E",
        "N"
      ],
      [
        "in",
        "ce"
      ],
      [
        "ser",
        "t"
      ],
      [
        "d",
        "a"
      ],
      [
        "g",
        "oal"
      ],
      [
        "i",
        "re"
      ],
      [
        "Ġf",
        "name"
      ],
      [
        "Ġf",
        "ind"
      ],
      [
        "me",
        "t"
      ],
      [
        "a",
        "ult"
      ],
      [
        "k",
        "w"
      ],
      [
        "Ġ",
        "entry"
      ],
      [
        "))",
        "\\"
      ],
      [
        "R",
        "M"
      ],
      [
        "t",
        "d"
      ],
      [
        "op",
        "en"
      ],
      [
        "Ġret",
        "ur"
      ],
      [
        "Ġpre",
        "v"
      ],
      [
        "d",
        "ate"
      ],
      [
        "Ġ",
        "up"
      ],
      [
        "un",
        "c"
      ],
      [
        "inu",
        "x"
      ],
      [
        "ra",
        "t"
      ],
      [
        "ĠA",
        "RM"
      ],
      [
        "ĠE",
        "x"
      ],
      [
        "80",
        "80"
      ],
      [
        "w",
        "c"
      ],
      [
        "Ġp",
        "q"
      ],
      [
        "Ġ",
        "@"
      ],
      [
        "ĠC",
        "laude"
      ],
      [
        "Ġgenerate",
        "s"
      ],
      [
        "los",
        "ure"
      ],
      [
        "A",
        "L"
      ],
      [
        "b",
        "ar"
      ],
      [
        "Ġo",
        "k"
      ],
      [
        "f",
        "st"
      ],
      [
        "a",
        "v"
      ],
      [
        "a",
        "st"
      ],
      [
        "b",
        "e"
      ],
      [
        "c",
        "md"
      ],
      [
        "ic",
        "es"
      ],
      [
        "bo",
        "ard"
      ],
      [
        "ash",
        "board"
      ],
      [
        "1",
        "7"
      ],
      [
        "T",
        "P"
      ],
      [
        "af",
        "e"
      ],
      [
        "f",
        "ig"
      ],
      [
        "ĠC",
        "ircle"
      ],
      [
        "w",
        "rite"
      ],
      [
        "Ġ1",
        "6"
      ],
      [
        "Ġsys",
        "tem"
      ],
      [
        "3",
        "3"
      ],
      [
        "L",
        "M"
      ],
      [
        "Ġ",
        "rail"
      ],
      [
        "Ġp",
        "id"
      ],
      [
        "k",
        "v"
      ],
      [
        "Ġ",
        "âķĲâķĲâķĲ"
      ],
      [
        "Ġf",
        "irst"
      ],
      [
        "a",
        "k"
      ],
      [
        "g",
        "pu"
      ],
      [
        "Ġaf",
        "ter"
      ],
      [
        "1",
        "3"
      ],
      [
        "m",
        "ess"
      ],
      [
        "Ġi",
        "mp"
      ],
      [
        "..",
        ".\""
      ],
      [
        "{",
        "\\\""
      ],
      [
        "Ġsol",
        "id"
      ],
      [
        ".",
        "</"
      ],
      [
        "Ġla",
        "nguage"
      ],
      [
        "ian",
        "ts"
      ],
      [
        "ve",
        "rif"
      ],
      [
        "fle",
        "x"
      ],
      [
        "9",
        "0"
      ],
      [
        "!",
        "="
      ],
      [
        "local",
        "host"
      ],
      [
        "Ġs",
        "c"
      ],
      [
        "Ġout",
        "put"
      ],
      [
        "al",
        "y"
      ],
      [
        "ĠĠĠĠ",
        "ĠĠĠĠĠĠĠ"
      ],
      [
        "Ġ\"/",
        "\","
      ],
      [
        "Ġex",
        "ist"
      ],
      [
        "ĠL",
        "o"
      ],
      [
        "ledat",
        "ic"
      ],
      [
        "ĠR",
        "un"
      ],
      [
        "Ġval",
        "id"
      ],
      [
        "v",
        "ol"
      ],
      [
        "Ġ\"",
        "%"
      ],
      [
        "he",
        "r"
      ],
      [
        "it",
        "le"
      ],
      [
        "d",
        "ouble"
      ],
      [
        "m",
        "t"
      ],
      [
        "ĠA",
        "DT"
      ],
      [
        "Ġ\"",
        "-"
      ],
      [
        "de",
        "d"
      ],
      [
        "Ġd",
        "um"
      ],
      [
        "Ġu",
        "ser"
      ],
      [
        "fle",
        "et"
      ],
      [
        "Ġdum",
        "my"
      ],
      [
        "b",
        "s"
      ],
      [
        "E",
        "D"
      ],
      [
        "if",
        "y"
      ],
      [
        "ĠL",
        "LM"
      ],
      [
        "Ġs",
        "tep"
      ],
      [
        "Ġar",
        "ena"
      ],
      [
        "Ġb",
        "o"
      ],
      [
        "ĠN",
        "O"
      ],
      [
        "am",
        "es"
      ],
      [
        "a",
        "ves"
      ],
      [
        "i",
        "es"
      ],
      [
        "m",
        "ory"
      ],
      [
        "L",
        "Y"
      ],
      [
        "re",
        "t"
      ],
      [
        "Y",
        "ou"
      ],
      [
        "ing",
        "s"
      ],
      [
        "Ġst",
        "p"
      ],
      [
        "ro",
        "p"
      ],
      [
        "Ġd",
        "ouble"
      ],
      [
        "and",
        "le"
      ],
      [
        "c",
        "al"
      ],
      [
        "Ġp",
        "o"
      ],
      [
        "âĶĢâĶĢâĶĢâĶĢâĶĢâĶĢâĶĢâĶĢâĶĢâĶĢâĶĢâĶĢâĶĢâĶĢâĶĢâĶĢ",
        "âĶĢâĶĢâĶĢâĶĢâĶĢâĶĢâĶĢâĶĢâĶĢâĶĢâĶĢâĶĢâĶĢâĶĢâĶĢâĶĢ"
      ],
      [
        "po",
        "s"
      ],
      [
        "ut",
        "put"
      ],
      [
        "Ġ\"\\",
        "\\\""
      ],
      [
        "Ġex",
        "p"
      ],
      [
        "ĠM",
        "ul"
      ],
      [
        "radi",
        "us"
      ],
      [
        "i",
        "cat"
      ],
      [
        "q",
        "l"
      ],
      [
        "w",
        "rap"
      ],
      [
        "Ġ",
        "end"
      ],
      [
        "ĠS",
        "quare"
      ],
      [
        "1",
        "8"
      ],
      [
        "C",
        "ontent"
      ],
      [
        "k",
        "er"
      ],
      [
        "te",
        "mp"
      ],
      [
        "Ġc",
        "t"
      ],
      [
        "mp",
        "ire"
      ],
      [
        "are",
        "a"
      ],
      [
        "Ġat",
        "tempt"
      ],
      [
        "Ġstat",
        "us"
      ],
      [
        "O",
        "K"
      ],
      [
        "s",
        "ub"
      ],
      [
        "Ġst",
        "ate"
      ],
      [
        "ex",
        "it"
      ],
      [
        "Ġme",
        "t"
      ],
      [
        "har",
        "vested"
      ],
      [
        "f",
        "n"
      ],
      [
        "Ġ",
        "!="
      ],
      [
        "ĠG",
        "PU"
      ],
      [
        "ice",
        "mpire"
      ],
      [
        "cycle",
        "s"
      ],
      [
        "ledat",
        "icempire"
      ],
      [
        "U",
        "sers"
      ],
      [
        "re",
        "en"
      ],
      [
        "Ġ[\"",
        "<"
      ],
      [
        "Ġid",
        "x"
      ],
      [
        "O",
        "M"
      ],
      [
        "prog",
        "ress"
      ],
      [
        "d",
        "ge"
      ],
      [
        "ri",
        "d"
      ],
      [
        "a",
        "ke"
      ],
      [
        "w",
        "ap"
      ],
      [
        "}",
        "\","
      ],
      [
        "Ġ\"",
        "âķ"
      ],
      [
        "de",
        "x"
      ],
      [
        "\\\"",
        "\""
      ],
      [
        "%",
        "{"
      ],
      [
        "u",
        "cc"
      ],
      [
        "Ġn",
        "x"
      ],
      [
        "sys",
        "tem"
      ],
      [
        "at",
        "che"
      ],
      [
        "Ġf",
        "ix"
      ],
      [
        "==",
        "="
      ],
      [
        "Ġc",
        "ont"
      ],
      [
        "Ġr",
        "ound"
      ],
      [
        "que",
        "st"
      ],
      [
        "S",
        "S"
      ],
      [
        "ur",
        "l"
      ],
      [
        "Ġint",
        "o"
      ],
      [
        "ress",
        "ion"
      ],
      [
        "icat",
        "ion"
      ],
      [
        "Ġre",
        "q"
      ],
      [
        "http",
        "s"
      ],
      [
        "r",
        "p"
      ],
      [
        "re",
        "verse"
      ],
      [
        "ul",
        "ts"
      ],
      [
        "pe",
        "d"
      ],
      [
        "p",
        "ython"
      ],
      [
        "st",
        "yle"
      ],
      [
        "\\\"",
        "\\"
      ],
      [
        "Ġre",
        "ason"
      ],
      [
        ")",
        "]"
      ],
      [
        "1",
        "9"
      ],
      [
        "ĠE",
        "rr"
      ],
      [
        "Ġparam",
        "s"
      ],
      [
        "c",
        "v"
      ],
      [
        "ut",
        "ive"
      ],
      [
        "Ġex",
        "ec"
      ],
      [
        "sec",
        "utive"
      ],
      [
        "Ġg",
        "en"
      ],
      [
        "Ġgoal",
        "s"
      ],
      [
        "P",
        "I"
      ],
      [
        "m",
        "in"
      ],
      [
        "Ġc",
        "mp"
      ],
      [
        "Ġth",
        "is"
      ],
      [
        "al",
        "th"
      ],
      [
        "m",
        "it"
      ],
      [
        "s",
        "ing"
      ],
      [
        "Ġ\"",
        ")"
      ],
      [
        "st",
        "d"
      ],
      [
        "Ġst",
        "ack"
      ],
      [
        "ĠC",
        "ompile"
      ],
      [
        "ms",
        "g"
      ],
      [
        "iel",
        "d"
      ],
      [
        "u",
        "ser"
      ],
      [
        "le",
        "ep"
      ],
      [
        "Ġlo",
        "cal"
      ],
      [
        "Ġe",
        "xtract"
      ],
      [
        "bo",
        "ol"
      ],
      [
        "aw",
        "n"
      ],
      [
        "mb",
        "da"
      ],
      [
        "Ġpair",
        "s"
      ],
      [
        "ho",
        "d"
      ],
      [
        "la",
        "bel"
      ],
      [
        "o",
        "se"
      ],
      [
        "Ġb",
        "uild"
      ],
      [
        "f",
        "in"
      ],
      [
        "l",
        "bl"
      ],
      [
        "la",
        "g"
      ],
      [
        "S",
        "ome"
      ],
      [
        "%",
        ";"
      ],
      [
        ")",
        "{"
      ],
      [
        "v",
        "ices"
      ],
      [
        "fa",
        "ct"
      ],
      [
        "Ġt",
        "ime"
      ],
      [
        "ĠR",
        "es"
      ],
      [
        "Ġm",
        "ar"
      ],
      [
        "Ġp",
        "ush"
      ],
      [
        "Ġs",
        "ave"
      ],
      [
        "our",
        "ce"
      ],
      [
        "2",
        "3"
      ],
      [
        "g",
        "low"
      ],
      [
        "k",
        "ip"
      ],
      [
        "to",
        "k"
      ],
      [
        "b",
        "a"
      ],
      [
        "l",
        "lm"
      ],
      [
        "u",
        "d"
      ],
      [
        "y",
        "n"
      ],
      [
        "Ġ",
        "ma"
      ],
      [
        "id",
        "d"
      ],
      [
        "ĠO",
        "N"
      ],
      [
        "f",
        "o"
      ],
      [
        "Ġ[",
        "])"
      ],
      [
        "='",
        "#"
      ],
      [
        "Ġte",
        "xt"
      ],
      [
        "mess",
        "ages"
      ],
      [
        "Ġ",
        "one"
      ],
      [
        "imp",
        "ort"
      ],
      [
        "Ġ\"",
        "=\""
      ],
      [
        "Ġto",
        "ol"
      ],
      [
        "ĠN",
        "um"
      ],
      [
        "Ġlo",
        "op"
      ],
      [
        "IN",
        "G"
      ],
      [
        "8",
        "2"
      ],
      [
        "O",
        "R"
      ],
      [
        "d",
        "own"
      ],
      [
        "o",
        "b"
      ],
      [
        "Ġ",
        "verif"
      ],
      [
        "Ġwh",
        "ite"
      ],
      [
        "re",
        "d"
      ],
      [
        "Ġb",
        "in"
      ],
      [
        "='",
        "\","
      ],
      [
        "ac",
        "ity"
      ],
      [
        "Ġresp",
        "onse"
      ],
      [
        "f",
        "ix"
      ],
      [
        "Ġp",
        "er"
      ],
      [
        "Ġc",
        "nt"
      ],
      [
        "at",
        "ter"
      ],
      [
        "al",
        "loc"
      ],
      [
        "um",
        "ent"
      ],
      [
        "con",
        "st"
      ],
      [
        "ql",
        "ite"
      ],
      [
        "n",
        "d"
      ],
      [
        ";",
        "</"
      ],
      [
        "Ġde",
        "ploy"
      ],
      [
        "ate",
        "s"
      ],
      [
        "s",
        "s"
      ],
      [
        "Ġe",
        "val"
      ],
      [
        "c",
        "laude"
      ],
      [
        "Ġf",
        "ont"
      ],
      [
        "up",
        "le"
      ],
      [
        "token",
        "s"
      ],
      [
        "}",
        "\"]"
      ],
      [
        "ad",
        "v"
      ],
      [
        "tr",
        "ue"
      ],
      [
        "Ġ\",",
        "\""
      ],
      [
        "Ġcon",
        "secutive"
      ],
      [
        "C",
        "T"
      ],
      [
        "M",
        "L"
      ],
      [
        "O",
        "F"
      ],
      [
        "ĠT",
        "he"
      ],
      [
        "Ġk",
        "v"
      ],
      [
        "Ġtoken",
        "ize"
      ],
      [
        "Ġ}",
        "\\"
      ],
      [
        "E",
        "T"
      ],
      [
        "R",
        "ail"
      ],
      [
        "f",
        "alse"
      ],
      [
        "Ġt",
        "ra"
      ],
      [
        "Ġs",
        "v"
      ],
      [
        "Ġht",
        "ml"
      ],
      [
        "ono",
        "space"
      ],
      [
        "C",
        "ons"
      ],
      [
        "p",
        "i"
      ],
      [
        "t",
        "l"
      ],
      [
        "Ġ2",
        "00"
      ],
      [
        "im",
        "ation"
      ],
      [
        "Ġl",
        "lm"
      ],
      [
        "Ġm",
        "ode"
      ],
      [
        "pl",
        "ace"
      ],
      [
        "ĠON",
        "LY"
      ],
      [
        "2",
        "1"
      ],
      [
        "8",
        "8"
      ],
      [
        "Ġt",
        "p"
      ],
      [
        "ar",
        "ch"
      ],
      [
        "oc",
        "ument"
      ],
      [
        "ar",
        "get"
      ],
      [
        "var",
        "iants"
      ],
      [
        "uil",
        "t"
      ],
      [
        "Ġexp",
        "ression"
      ],
      [
        "u",
        "ct"
      ],
      [
        "Ġs",
        "ince"
      ],
      [
        "Ġb",
        "e"
      ],
      [
        "Ġv",
        "ault"
      ],
      [
        "Ġa",
        "g"
      ],
      [
        "ro",
        "ve"
      ],
      [
        "ucc",
        "ess"
      ],
      [
        "a",
        "uto"
      ],
      [
        "f",
        "lywheel"
      ],
      [
        "Ġre",
        "p"
      ],
      [
        "ol",
        "l"
      ],
      [
        "an",
        "t"
      ],
      [
        "lo",
        "op"
      ],
      [
        "Ġv",
        "ar"
      ],
      [
        "et",
        "we"
      ],
      [
        "etwe",
        "en"
      ],
      [
        "op",
        "acity"
      ],
      [
        "'>",
        "&"
      ],
      [
        "ĠT",
        "est"
      ],
      [
        "et",
        "al"
      ],
      [
        "Ġlo",
        "ad"
      ],
      [
        "c",
        "heck"
      ],
      [
        "f",
        "g"
      ],
      [
        "Ġ",
        "url"
      ],
      [
        "p",
        "a"
      ],
      [
        "Ġ\"",
        "]"
      ],
      [
        "ic",
        "k"
      ],
      [
        "Ġcomp",
        "ute"
      ],
      [
        "Q",
        "w"
      ],
      [
        "Ġ",
        "ys"
      ],
      [
        "en",
        "code"
      ],
      [
        "))",
        ")))"
      ],
      [
        "Ġop",
        "en"
      ],
      [
        "ĠHT",
        "TP"
      ],
      [
        "ĠLo",
        "RA"
      ],
      [
        "Qw",
        "en"
      ],
      [
        "6",
        "0"
      ],
      [
        "Ġp",
        "op"
      ],
      [
        "Ġse",
        "eds"
      ],
      [
        "ĠH",
        "ar"
      ],
      [
        "pl",
        "an"
      ],
      [
        "Ġus",
        "r"
      ],
      [
        "T",
        "ree"
      ],
      [
        "Ġres",
        "ults"
      ],
      [
        "n",
        "av"
      ],
      [
        "Ġ==",
        "=\""
      ],
      [
        "Ġnum",
        "b"
      ],
      [
        "e",
        "le"
      ],
      [
        "t",
        "c"
      ],
      [
        "in",
        "k"
      ],
      [
        "Ġ1",
        "7"
      ],
      [
        "ĠM",
        "L"
      ],
      [
        "en",
        "c"
      ],
      [
        "9",
        "9"
      ],
      [
        "Ġcompile",
        "s"
      ],
      [
        "')",
        "."
      ],
      [
        "Ġ",
        "rate"
      ],
      [
        "Ġs",
        "h"
      ],
      [
        "B",
        "y"
      ],
      [
        "lo",
        "se"
      ],
      [
        "pl",
        "ication"
      ],
      [
        "zer",
        "o"
      ],
      [
        "T",
        "ype"
      ],
      [
        "Ġo",
        "b"
      ],
      [
        ")",
        "."
      ],
      [
        "9",
        "7"
      ],
      [
        "u",
        "al"
      ],
      [
        "Ġp",
        "s"
      ],
      [
        "me",
        "m"
      ],
      [
        "Ġto",
        "t"
      ],
      [
        "Ġd",
        "o"
      ],
      [
        "Ġprogram",
        "s"
      ],
      [
        "re",
        "g"
      ],
      [
        "or",
        "ts"
      ],
      [
        "Ġu",
        "se"
      ],
      [
        "v",
        "ent"
      ],
      [
        "mar",
        "k"
      ],
      [
        "t",
        "ree"
      ],
      [
        "w",
        "asm"
      ],
      [
        "..",
        "."
      ],
      [
        "OF",
        "F"
      ],
      [
        "D",
        "O"
      ],
      [
        "E",
        "W"
      ],
      [
        "u",
        "ard"
      ],
      [
        "Ġ\"",
        "&"
      ],
      [
        "Ġm",
        "erge"
      ],
      [
        "Ġgene",
        "ration"
      ],
      [
        "Ġmar",
        "k"
      ],
      [
        "Ġ\"",
        "--"
      ],
      [
        "al",
        "ive"
      ],
      [
        "Ġpr",
        "oc"
      ],
      [
        "ĠM",
        "etal"
      ],
      [
        ">",
        "\"]"
      ],
      [
        "3",
        "6"
      ],
      [
        "Ġle",
        "n"
      ],
      [
        "p",
        "ly"
      ],
      [
        "ad",
        "ow"
      ],
      [
        "Ġval",
        "ue"
      ],
      [
        "rap",
        "h"
      ],
      [
        "pos",
        "ition"
      ],
      [
        "L",
        "D"
      ],
      [
        "d",
        "b"
      ],
      [
        "m",
        "at"
      ],
      [
        "Ġad",
        "v"
      ],
      [
        "g",
        "rid"
      ],
      [
        "l",
        "i"
      ],
      [
        "m",
        "onospace"
      ],
      [
        "Ġwor",
        "k"
      ],
      [
        "c",
        "ks"
      ],
      [
        "or",
        "ted"
      ],
      [
        "ĠO",
        "utput"
      ],
      [
        "Ġcom",
        "man"
      ],
      [
        "yn",
        "c"
      ],
      [
        "\\\"",
        ">"
      ],
      [
        "ĠL",
        "e"
      ],
      [
        "sk",
        "ip"
      ],
      [
        "c",
        "g"
      ],
      [
        "l",
        "x"
      ],
      [
        "Ġl",
        "sl"
      ],
      [
        "Ġ[\"",
        "\\"
      ],
      [
        "u",
        "res"
      ],
      [
        "Ġcon",
        "text"
      ],
      [
        "I",
        "C"
      ],
      [
        "Ġ(",
        "_"
      ],
      [
        "pe",
        "at"
      ],
      [
        "ip",
        "el"
      ],
      [
        "ha",
        "pe"
      ],
      [
        "p",
        "aram"
      ],
      [
        "re",
        "ct"
      ],
      [
        "Ġon",
        "ly"
      ],
      [
        "sh",
        "adow"
      ],
      [
        "ain",
        "s"
      ],
      [
        "2",
        "6"
      ],
      [
        "]",
        ")))"
      ],
      [
        "g",
        "es"
      ],
      [
        "ĠĠĠĠ",
        "ĠĠ"
      ],
      [
        "Ġtest",
        "s"
      ],
      [
        "'",
        "\")"
      ],
      [
        "s",
        "afe"
      ],
      [
        "u",
        "es"
      ],
      [
        "ĠC",
        "heck"
      ],
      [
        "s",
        "tep"
      ],
      [
        "Ġ1",
        "3"
      ],
      [
        "Ġ#",
        "\","
      ],
      [
        "in",
        "i"
      ],
      [
        "en",
        "ce"
      ],
      [
        "Ġ(_",
        ","
      ],
      [
        "m",
        "erge"
      ],
      [
        "s",
        "rc"
      ],
      [
        "Ġ\"",
        "},"
      ],
      [
        "ĠS",
        "tr"
      ],
      [
        "Ġprog",
        "ress"
      ],
      [
        "ĠM",
        "ono"
      ],
      [
        "Ġwhite",
        "list"
      ],
      [
        "R",
        "AIL"
      ],
      [
        "i",
        "que"
      ],
      [
        "r",
        "int"
      ],
      [
        "Ġs",
        "ub"
      ],
      [
        "Ġn",
        "ative"
      ],
      [
        "ho",
        "me"
      ],
      [
        "ver",
        "y"
      ],
      [
        "PAGE",
        "OFF"
      ],
      [
        "d",
        "ocument"
      ],
      [
        "Ġ\"",
        "{\","
      ],
      [
        "str",
        "ing"
      ],
      [
        "ĠML",
        "X"
      ],
      [
        ":",
        "\""
      ],
      [
        "_",
        "\","
      ],
      [
        "ĠO",
        "k"
      ],
      [
        "in",
        "sert"
      ],
      [
        "Ġpr",
        "o"
      ],
      [
        "Ġf",
        "unc"
      ],
      [
        "ck",
        "et"
      ],
      [
        "',",
        "'"
      ],
      [
        "Ġcur",
        "l"
      ],
      [
        "Ġme",
        "mory"
      ],
      [
        "Ġ\"-",
        "\""
      ],
      [
        "l",
        "l"
      ],
      [
        "n",
        "b"
      ],
      [
        "n",
        "own"
      ],
      [
        "Ġh",
        "andle"
      ],
      [
        "ĠU",
        "se"
      ],
      [
        "E",
        "S"
      ],
      [
        "N",
        "T"
      ],
      [
        "t",
        "itle"
      ],
      [
        "Ġ",
        "Ċ"
      ],
      [
        "Ġs",
        "ource"
      ],
      [
        "Ġ\"/",
        "\""
      ],
      [
        "ĠP",
        "arse"
      ],
      [
        "\\\",",
        "\\\""
      ],
      [
        "4",
        "4"
      ],
      [
        "y",
        "te"
      ],
      [
        "Ġ\"",
        "*"
      ],
      [
        "in",
        "it"
      ],
      [
        "Ġm",
        "s"
      ],
      [
        "Ġ(\"",
        "\","
      ],
      [
        "Ġmet",
        "hod"
      ],
      [
        "Ġ(",
        "\","
      ],
      [
        "Ġt",
        "ry"
      ],
      [
        "Ġb",
        "ase"
      ],
      [
        "Ġst",
        "op"
      ],
      [
        "2",
        "00"
      ],
      [
        "a",
        "zer"
      ],
      [
        "le",
        "te"
      ],
      [
        "se",
        "eds"
      ],
      [
        "Ġr",
        "o"
      ],
      [
        "ne",
        "w"
      ],
      [
        "f",
        "unction"
      ],
      [
        "Ġap",
        "plication"
      ],
      [
        "ĠRes",
        "ult"
      ],
      [
        "c",
        "o"
      ],
      [
        "Ġ2",
        "5"
      ],
      [
        "ter",
        "s"
      ],
      [
        "we",
        "ight"
      ],
      [
        "66",
        "6"
      ],
      [
        "digit",
        "s"
      ],
      [
        "Ġ\"",
        "["
      ],
      [
        "Ġs",
        "kip"
      ],
      [
        "me",
        "tal"
      ],
      [
        "ac",
        "ing"
      ],
      [
        "Ġ4",
        "0"
      ],
      [
        "'",
        ")\\"
      ],
      [
        "i",
        "o"
      ],
      [
        "w",
        "o"
      ],
      [
        "Ġf",
        "lywheel"
      ],
      [
        "an",
        "imation"
      ],
      [
        "Ġit",
        "self"
      ],
      [
        "Ġgap",
        "s"
      ],
      [
        "vol",
        "ve"
      ],
      [
        "e",
        "xt"
      ],
      [
        "te",
        "g"
      ],
      [
        "he",
        "ap"
      ],
      [
        "ab",
        "out"
      ],
      [
        "prog",
        "ram"
      ],
      [
        "ze",
        "mo"
      ],
      [
        "i",
        "v"
      ],
      [
        "t",
        "ic"
      ],
      [
        "ĠC",
        "on"
      ],
      [
        "l",
        "an"
      ],
      [
        "fib",
        "er"
      ],
      [
        "j",
        "ust"
      ],
      [
        "u",
        "g"
      ],
      [
        "on",
        "g"
      ],
      [
        "Ġn",
        "ames"
      ],
      [
        "to",
        "ol"
      ],
      [
        "Ġcon",
        "ver"
      ],
      [
        "ml",
        "x"
      ],
      [
        "Ġad",
        "rp"
      ],
      [
        "model",
        "s"
      ],
      [
        "ram",
        "mar"
      ],
      [
        "Ġde",
        "f"
      ],
      [
        "M",
        "kPair"
      ],
      [
        "s",
        "wap"
      ],
      [
        "u",
        "th"
      ],
      [
        "at",
        "tempt"
      ],
      [
        "Ġb",
        "ind"
      ],
      [
        "un",
        "ch"
      ],
      [
        "Ġm",
        "argin"
      ],
      [
        "ge",
        "st"
      ],
      [
        "gap",
        "s"
      ],
      [
        "V",
        "E"
      ],
      [
        "l",
        "inux"
      ],
      [
        "m",
        "idd"
      ],
      [
        "Ġ",
        ":"
      ],
      [
        "Ġ\"",
        "}"
      ],
      [
        "Ġre",
        "cur"
      ],
      [
        "Ġr",
        "di"
      ],
      [
        "Ġf",
        "a"
      ],
      [
        "Ġval",
        "ues"
      ],
      [
        "Ġu",
        "ses"
      ],
      [
        "Ġcall",
        "s"
      ],
      [
        "c",
        "ont"
      ],
      [
        "r",
        "ent"
      ],
      [
        "se",
        "mb"
      ],
      [
        "ĠĠĠĠ",
        "Ċ"
      ],
      [
        "s",
        "leep"
      ],
      [
        "ra",
        "ted"
      ],
      [
        ");",
        "\""
      ],
      [
        "bl",
        "ue"
      ],
      [
        "d",
        "r"
      ],
      [
        "h",
        "s"
      ],
      [
        "t",
        "OK"
      ],
      [
        "Ġf",
        "ree"
      ],
      [
        "Ġw",
        "tc"
      ],
      [
        "ile",
        "d"
      ],
      [
        "op",
        "t"
      ],
      [
        "trans",
        "late"
      ],
      [
        "nb",
        "sp"
      ],
      [
        "(",
        "("
      ],
      [
        "A",
        "dd"
      ],
      [
        "b",
        "etween"
      ],
      [
        "Ġc",
        "he"
      ],
      [
        "de",
        "sc"
      ],
      [
        "lo",
        "ck"
      ],
      [
        "Ġrun",
        "s"
      ],
      [
        "Ġas",
        "k"
      ],
      [
        "Ġte",
        "mp"
      ],
      [
        "ĠLe",
        "vel"
      ],
      [
        "U",
        "T"
      ],
      [
        "c",
        "losure"
      ],
      [
        "Ġ\"",
        "==="
      ],
      [
        "Ġp",
        "atter"
      ],
      [
        "st",
        "op"
      ],
      [
        "mo",
        "te"
      ],
      [
        "Ġsv",
        "c"
      ],
      [
        "E",
        "le"
      ],
      [
        "sp",
        "acing"
      ],
      [
        "ct",
        "l"
      ],
      [
        "2",
        "8"
      ],
      [
        "g",
        "enerate"
      ],
      [
        "ra",
        "w"
      ],
      [
        "he",
        "s"
      ],
      [
        "ader",
        "s"
      ],
      [
        "L",
        "ist"
      ],
      [
        "Ġ1",
        "1"
      ],
      [
        "Ġ[\"",
        "{\","
      ],
      [
        "aw",
        "ait"
      ],
      [
        "uilt",
        "in"
      ],
      [
        "Ġche",
        "cks"
      ],
      [
        ".",
        "\"]"
      ],
      [
        "B",
        "rain"
      ],
      [
        "J",
        "et"
      ],
      [
        "ro",
        "ss"
      ],
      [
        "('",
        "/"
      ],
      [
        "ĠEx",
        "pr"
      ],
      [
        "Ġbin",
        "ary"
      ],
      [
        "ipel",
        "ine"
      ],
      [
        "Brain",
        "s"
      ],
      [
        "Jet",
        "Brains"
      ],
      [
        "m",
        "k"
      ],
      [
        "in",
        "dex"
      ],
      [
        "ho",
        "ver"
      ],
      [
        "Ġre",
        "place"
      ],
      [
        "ch",
        "at"
      ],
      [
        "Ġ>",
        ">"
      ],
      [
        "#",
        "#"
      ],
      [
        "i",
        "de"
      ],
      [
        "Ġ",
        "Write"
      ],
      [
        "Ġa",
        "uto"
      ],
      [
        "âĶ",
        "ģ"
      ],
      [
        "ĠS",
        "elf"
      ],
      [
        "Ġd",
        "b"
      ],
      [
        "goal",
        "s"
      ],
      [
        "O",
        "ST"
      ],
      [
        "p",
        "ush"
      ],
      [
        "Ġl",
        "ib"
      ],
      [
        "he",
        "alth"
      ],
      [
        "ap",
        "s"
      ],
      [
        "fo",
        "o"
      ],
      [
        "pi",
        "pe"
      ],
      [
        "b",
        "yte"
      ],
      [
        "f",
        "ind"
      ],
      [
        "s",
        "vg"
      ],
      [
        "Ġg",
        "rep"
      ],
      [
        "ĠT",
        "o"
      ],
      [
        "Ġretur",
        "n"
      ],
      [
        "I",
        "d"
      ],
      [
        "b",
        "it"
      ],
      [
        "g",
        "ba"
      ],
      [
        "re",
        "q"
      ],
      [
        "od",
        "u"
      ],
      [
        "Ġfor",
        "mat"
      ],
      [
        "ĠE",
        "dge"
      ],
      [
        "fa",
        "ctor"
      ],
      [
        "@",
        "@"
      ],
      [
        "f",
        "mt"
      ],
      [
        "l",
        "at"
      ],
      [
        "Ġ",
        "âĶĢâĶĢ"
      ],
      [
        "Ġc",
        "fg"
      ],
      [
        "Ġ@",
        "@"
      ],
      [
        "âĶģ",
        "âĶģ"
      ],
      [
        "Ġ\"",
        "\")"
      ],
      [
        "Ġp",
        "a"
      ],
      [
        "Ġ1",
        "5"
      ],
      [
        "Ġde",
        "c"
      ],
      [
        "s",
        "ite"
      ],
      [
        "le",
        "et"
      ],
      [
        "ion",
        "s"
      ],
      [
        "ap",
        "i"
      ],
      [
        "Ġcon",
        "d"
      ],
      [
        "ĠHT",
        "ML"
      ],
      [
        "rat",
        "or"
      ],
      [
        "Ġms",
        "g"
      ],
      [
        "6",
        "5"
      ],
      [
        "Ġf",
        "loat"
      ],
      [
        "Ġr",
        "ow"
      ],
      [
        "ser",
        "ve"
      ],
      [
        "col",
        "um"
      ],
      [
        "run",
        "time"
      ],
      [
        "c",
        "ase"
      ],
      [
        "p",
        "id"
      ],
      [
        "p",
        "ha"
      ],
      [
        "s",
        "uccess"
      ],
      [
        "t",
        "ake"
      ],
      [
        "Ġw",
        "pe"
      ],
      [
        "ĠR",
        "azer"
      ],
      [
        "n",
        "er"
      ],
      [
        "p",
        "re"
      ],
      [
        "Ġ",
        "80"
      ],
      [
        "Ġ",
        "host"
      ],
      [
        "le",
        "aves"
      ],
      [
        "Ġst",
        "d"
      ],
      [
        "Ġfunction",
        "s"
      ],
      [
        "Ġj",
        "str"
      ],
      [
        "aly",
        "ze"
      ],
      [
        "d",
        "one"
      ],
      [
        "Ġn",
        "ow"
      ],
      [
        "Ġh",
        "i"
      ],
      [
        "ĠI",
        "n"
      ],
      [
        ",",
        "\\\""
      ],
      [
        "3",
        "7"
      ],
      [
        "d",
        "rop"
      ],
      [
        "e",
        "w"
      ],
      [
        "p",
        "le"
      ],
      [
        "Ġt",
        "arget"
      ],
      [
        "Ġ_",
        ")"
      ],
      [
        "res",
        "ult"
      ],
      [
        "ĠF",
        "AIL"
      ],
      [
        "Ġal",
        "ive"
      ],
      [
        ")",
        "\"])"
      ],
      [
        ".",
        "\\"
      ],
      [
        "6",
        "3"
      ],
      [
        "Ġ\"",
        "+"
      ],
      [
        "Ġs",
        "orted"
      ],
      [
        "ĠS",
        "hape"
      ],
      [
        "Ġfor",
        "ge"
      ],
      [
        "?",
        "\""
      ],
      [
        "c",
        "mp"
      ],
      [
        "e",
        "cho"
      ],
      [
        "Ġt",
        "xt"
      ],
      [
        "Ġar",
        "ms"
      ],
      [
        "la",
        "st"
      ],
      [
        "ĠP",
        "ush"
      ],
      [
        "ĠG",
        "enerate"
      ],
      [
        "ite",
        "ms"
      ],
      [
        "Ġretur",
        "ns"
      ],
      [
        "t",
        "en"
      ],
      [
        "ra",
        "me"
      ],
      [
        "Ġstep",
        "s"
      ],
      [
        "9",
        "6"
      ],
      [
        "e",
        "xtract"
      ],
      [
        "v",
        "i"
      ],
      [
        "y",
        "es"
      ],
      [
        "Ġ",
        "K"
      ],
      [
        "Ġt",
        "c"
      ],
      [
        "Ġs",
        "qlite"
      ],
      [
        "Ġc",
        "oun"
      ],
      [
        "Ġo",
        "ver"
      ],
      [
        "ract",
        "ice"
      ],
      [
        "vent",
        "s"
      ],
      [
        "Ele",
        "ment"
      ],
      [
        "`",
        "`"
      ],
      [
        "d",
        "ges"
      ],
      [
        "Ġ",
        ":\","
      ],
      [
        "Ġi",
        "ts"
      ],
      [
        "Ġw",
        "ct"
      ],
      [
        "Ġe",
        "dges"
      ],
      [
        "of",
        "f"
      ],
      [
        "âķĲâķĲâķĲâķĲâķĲâķĲâķĲâķĲâķĲâķĲâķĲâķĲâķĲâķĲâķĲâķĲâķĲâķĲâķĲâķĲâķĲâķĲâķĲâķĲâķĲâķĲâķĲâķĲâķĲâķĲâķĲâķĲ",
        "âķĲâķĲâķĲâķĲâķĲâķĲâķĲâķĲâķĲâķĲâķĲâķĲâķĲâķĲâķĲâķĲ"
      ],
      [
        "'>",
        "\","
      ],
      [
        "Ġrun",
        "ning"
      ],
      [
        "Ġnode",
        "s"
      ],
      [
        "Ġc",
        "losure"
      ],
      [
        "er",
        "y"
      ],
      [
        "Ġm",
        "k"
      ],
      [
        "ĠS",
        "ub"
      ],
      [
        "Ġcon",
        "fig"
      ],
      [
        "Ġverif",
        "y"
      ],
      [
        ":",
        ":"
      ],
      [
        "[",
        "\","
      ],
      [
        "Ġ\"",
        "|"
      ],
      [
        "Ġs",
        "end"
      ],
      [
        "Ġa",
        "w"
      ],
      [
        "Ġ10",
        "1"
      ],
      [
        "25",
        "5"
      ],
      [
        "Ġreason",
        "ing"
      ],
      [
        "N",
        "EW"
      ],
      [
        "]",
        "["
      ],
      [
        "n",
        "il"
      ],
      [
        "--",
        "-"
      ],
      [
        "ex",
        "amples"
      ],
      [
        "stat",
        "s"
      ],
      [
        "Ġor",
        "r"
      ],
      [
        "Ġimp",
        "rove"
      ],
      [
        "M",
        "ul"
      ],
      [
        "g",
        "ith"
      ],
      [
        "g",
        "rep"
      ],
      [
        "Ġ|",
        ">"
      ],
      [
        "Ġm",
        "ul"
      ],
      [
        "gith",
        "ub"
      ],
      [
        "'",
        "s"
      ],
      [
        "k",
        "nown"
      ],
      [
        "m",
        "is"
      ],
      [
        "Ġ",
        "De"
      ],
      [
        "st",
        "ate"
      ],
      [
        "Ġpr",
        "op"
      ],
      [
        "or",
        "g"
      ],
      [
        "ist",
        "ant"
      ],
      [
        "trans",
        "ition"
      ],
      [
        "rip",
        "t"
      ],
      [
        "Ġ\"\\\\",
        "\\\"\""
      ],
      [
        "factor",
        "ial"
      ],
      [
        "b",
        "ra"
      ],
      [
        "d",
        "ashboard"
      ],
      [
        "e",
        "ed"
      ],
      [
        "Ġ\"",
        "\","
      ],
      [
        "to",
        "tal"
      ],
      [
        "Ġ6",
        "0"
      ],
      [
        "ker",
        "nel"
      ],
      [
        "\"",
        "))))"
      ],
      [
        "sp",
        "awn"
      ],
      [
        "Ġd",
        "ashboard"
      ],
      [
        "Ġdi",
        "ff"
      ],
      [
        "Ġcont",
        "ains"
      ],
      [
        "de",
        "g"
      ],
      [
        "Ġw",
        "ait"
      ],
      [
        "Ġn",
        "th"
      ],
      [
        "la",
        "mbda"
      ],
      [
        "Ġwor",
        "ld"
      ],
      [
        "ĠHar",
        "vest"
      ],
      [
        "F",
        "ix"
      ],
      [
        "P",
        "E"
      ],
      [
        "Ġ",
        "man"
      ],
      [
        "ar",
        "m"
      ],
      [
        "Ġb",
        "order"
      ],
      [
        "Ġr",
        "l"
      ],
      [
        "get",
        "Element"
      ],
      [
        "ĠO",
        "p"
      ],
      [
        "By",
        "Id"
      ],
      [
        "getElement",
        "ById"
      ],
      [
        "a",
        "y"
      ],
      [
        "p",
        "op"
      ],
      [
        "Ġin",
        "teg"
      ],
      [
        "d",
        "ash"
      ],
      [
        "Ġ\"",
        ">\""
      ],
      [
        "es",
        "ted"
      ],
      [
        "AI",
        "N"
      ],
      [
        "4",
        "5"
      ],
      [
        "b",
        "p"
      ],
      [
        "e",
        "val"
      ],
      [
        "g",
        "reen"
      ],
      [
        "Ġc",
        "ha"
      ],
      [
        "ra",
        "zer"
      ],
      [
        "ar",
        "row"
      ],
      [
        "Ġm",
        "in"
      ],
      [
        "ĠS",
        "er"
      ],
      [
        "ĠH",
        "e"
      ],
      [
        "just",
        "ify"
      ],
      [
        "H",
        "T"
      ],
      [
        "e",
        "ven"
      ],
      [
        "Ġp",
        "ure"
      ],
      [
        "ra",
        "s"
      ],
      [
        "ar",
        "ge"
      ],
      [
        "Ġre",
        "train"
      ],
      [
        ":",
        "%"
      ],
      [
        "T",
        "o"
      ],
      [
        "as",
        "k"
      ],
      [
        "ri",
        "ption"
      ],
      [
        "ex",
        "ample"
      ],
      [
        "Ġcol",
        "lect"
      ],
      [
        "Ġag",
        "ent"
      ],
      [
        "c",
        "es"
      ],
      [
        "e",
        "k"
      ],
      [
        "r",
        "ol"
      ],
      [
        "Ġe",
        "ven"
      ],
      [
        "Ġh",
        "ash"
      ],
      [
        "met",
        "a"
      ],
      [
        "/",
        "^"
      ],
      [
        "C",
        "ircle"
      ],
      [
        "n",
        "ot"
      ],
      [
        "Ġc",
        "an"
      ],
      [
        "Ġf",
        "ill"
      ],
      [
        "Ġ2",
        "1"
      ],
      [
        "Ġst",
        "mt"
      ],
      [
        "Ġthe",
        "m"
      ],
      [
        "ĠF",
        "unction"
      ],
      [
        "Ġnum",
        "s"
      ],
      [
        "adapter",
        "s"
      ],
      [
        "Ġexist",
        "ing"
      ],
      [
        "midd",
        "ot"
      ],
      [
        "A",
        "S"
      ],
      [
        "e",
        "mpty"
      ],
      [
        "i",
        "mple"
      ],
      [
        "Ġp",
        "age"
      ],
      [
        "re",
        "set"
      ],
      [
        "ar",
        "ts"
      ],
      [
        "EN",
        "D"
      ],
      [
        "+",
        "--"
      ],
      [
        "1",
        "20"
      ],
      [
        "f",
        "ill"
      ],
      [
        "o",
        "ver"
      ],
      [
        "Ġa",
        "ct"
      ],
      [
        "Ġto",
        "k"
      ],
      [
        "fin",
        "ite"
      ],
      [
        "Ġob",
        "j"
      ],
      [
        ";",
        "}\""
      ],
      [
        "U",
        "sage"
      ],
      [
        "y",
        "nt"
      ],
      [
        "le",
        "an"
      ],
      [
        "Ġ\"",
        ":\\"
      ],
      [
        "Ġm",
        "ult"
      ],
      [
        "lo",
        "ud"
      ],
      [
        "id",
        "x"
      ],
      [
        "ĠP",
        "ro"
      ],
      [
        "po",
        "st"
      ],
      [
        "Ġback",
        "ground"
      ],
      [
        "Ġerror",
        "s"
      ],
      [
        "b",
        "and"
      ],
      [
        "di",
        "m"
      ],
      [
        "ter",
        "f"
      ],
      [
        "Ġin",
        "c"
      ],
      [
        "ib",
        "l"
      ],
      [
        "Ġcur",
        "rent"
      ],
      [
        "Ġser",
        "ve"
      ],
      [
        "ĠRe",
        "ad"
      ],
      [
        "55",
        "5"
      ],
      [
        "Ġproc",
        "ess"
      ],
      [
        "R",
        "OR"
      ],
      [
        "b",
        "ase"
      ],
      [
        "t",
        "ing"
      ],
      [
        "Ġw",
        "asm"
      ],
      [
        "6",
        "7"
      ],
      [
        "Ġ\"",
        "@"
      ],
      [
        "ul",
        "d"
      ],
      [
        "semb",
        "ly"
      ],
      [
        ")",
        "])"
      ],
      [
        "f",
        "r"
      ],
      [
        "h",
        "is"
      ],
      [
        "le",
        "r"
      ],
      [
        "Ġle",
        "dat"
      ],
      [
        "Ġrun",
        "time"
      ],
      [
        "tion",
        "s"
      ],
      [
        "Ġby",
        "te"
      ],
      [
        "ĠStr",
        "ing"
      ],
      [
        "unch",
        "ctl"
      ],
      [
        "Ġfa",
        "iled"
      ],
      [
        "Ġledat",
        "ic"
      ],
      [
        "U",
        "N"
      ],
      [
        "]",
        "\","
      ],
      [
        "y",
        "ield"
      ],
      [
        "Ġ",
        "âĶĢâĶĢâĶĢâĶĢâĶĢâĶĢâĶĢâĶĢâĶĢâĶĢâĶĢâĶĢâĶĢâĶĢâĶĢâĶĢâĶĢâĶĢâĶĢâĶĢâĶĢâĶĢâĶĢâĶĢâĶĢâĶĢâĶĢâĶĢâĶĢâĶĢâĶĢâĶĢ"
      ],
      [
        "le",
        "d"
      ],
      [
        "le",
        "x"
      ],
      [
        "Ġp",
        "as"
      ],
      [
        "ac",
        "es"
      ],
      [
        "str",
        "ong"
      ],
      [
        "ex",
        "ec"
      ],
      [
        "Ġo",
        "pe"
      ],
      [
        ")}",
        "\","
      ],
      [
        "wor",
        "d"
      ],
      [
        "Ġnumb",
        "er"
      ],
      [
        "3",
        "16"
      ],
      [
        "e",
        "m"
      ],
      [
        "f",
        "unc"
      ],
      [
        "n",
        "ect"
      ],
      [
        "Ġ\"",
        ">"
      ],
      [
        "Ġ(",
        "\\\\"
      ],
      [
        "re",
        "w"
      ],
      [
        "al",
        "ys"
      ],
      [
        "val",
        "ue"
      ],
      [
        "Ġpre",
        "fix"
      ],
      [
        "Ġele",
        "ment"
      ],
      [
        "nd",
        "om"
      ],
      [
        "param",
        "s"
      ],
      [
        "alys",
        "is"
      ],
      [
        "D",
        "E"
      ],
      [
        "c",
        "lass"
      ],
      [
        "f",
        "lag"
      ],
      [
        "in",
        "ks"
      ],
      [
        "Ġfix",
        "ed"
      ],
      [
        "(",
        ")"
      ],
      [
        "u",
        "ff"
      ],
      [
        "}",
        "'"
      ],
      [
        "Ġ",
        "old"
      ],
      [
        "Ġ",
        "8080"
      ],
      [
        "Ġ1",
        "2"
      ],
      [
        "ge",
        "d"
      ],
      [
        "pe",
        "ct"
      ],
      [
        "ap",
        "t"
      ],
      [
        "ĠC",
        "ode"
      ],
      [
        "let",
        "ter"
      ],
      [
        ".",
        "\","
      ],
      [
        "g",
        "m"
      ],
      [
        "Ġ",
        "\\\\"
      ],
      [
        "ro",
        "ke"
      ],
      [
        "00",
        "0"
      ],
      [
        "id",
        "ent"
      ],
      [
        "97",
        "316"
      ],
      [
        "b",
        "ad"
      ],
      [
        "in",
        "c"
      ],
      [
        "Ġa",
        "ri"
      ],
      [
        "or",
        "ial"
      ],
      [
        "Ġ5",
        "0"
      ],
      [
        "Ġme",
        "tal"
      ],
      [
        "3",
        "5"
      ],
      [
        "m",
        "ode"
      ],
      [
        "Ġ",
        "},"
      ],
      [
        "Ġp",
        "i"
      ],
      [
        "on",
        "it"
      ],
      [
        "Ġf",
        "lag"
      ],
      [
        "he",
        "d"
      ],
      [
        "as",
        "c"
      ],
      [
        "Ġre",
        "c"
      ],
      [
        "Ġr",
        "r"
      ],
      [
        "onit",
        "or"
      ],
      [
        "=",
        "("
      ],
      [
        "S",
        "ER"
      ],
      [
        "a",
        "mp"
      ],
      [
        "v",
        "ice"
      ],
      [
        "de",
        "cls"
      ],
      [
        "sp",
        "atch"
      ],
      [
        "ĠA",
        "ST"
      ],
      [
        "Ġdi",
        "sk"
      ],
      [
        "Ġtoken",
        "s"
      ],
      [
        "Ġfib",
        "er"
      ],
      [
        "7",
        "0"
      ],
      [
        ";",
        "&"
      ],
      [
        "l",
        "ic"
      ],
      [
        "Ġw",
        "e"
      ],
      [
        "sp",
        "ec"
      ],
      [
        "\\\"",
        ">\","
      ],
      [
        "lit",
        "ch"
      ],
      [
        "iz",
        "ation"
      ],
      [
        "ot",
        "her"
      ],
      [
        "Ġra",
        "x"
      ],
      [
        "',",
        "\\"
      ],
      [
        "con",
        "d"
      ],
      [
        "bin",
        "op"
      ],
      [
        "Ġele",
        "ments"
      ],
      [
        "Ġ\"+",
        "\""
      ],
      [
        "ibl",
        "ings"
      ],
      [
        "Ġpas",
        "sed"
      ],
      [
        "spec",
        "s"
      ],
      [
        "I",
        "n"
      ],
      [
        "p",
        "t"
      ],
      [
        "Ġl",
        "l"
      ],
      [
        "Ġre",
        "quest"
      ],
      [
        "ow",
        "er"
      ],
      [
        "Ġp",
        "adding"
      ],
      [
        "te",
        "ms"
      ],
      [
        "al",
        "s"
      ],
      [
        "ĠL",
        "a"
      ],
      [
        "ĠP",
        "rint"
      ],
      [
        "Ġpo",
        "int"
      ],
      [
        "/",
        "_"
      ],
      [
        ";",
        "\\"
      ],
      [
        "F",
        "AIL"
      ],
      [
        "c",
        "lose"
      ],
      [
        "Ġ",
        "hel"
      ],
      [
        "Ġq",
        "u"
      ],
      [
        "temp",
        "late"
      ],
      [
        "+",
        "'"
      ],
      [
        "L",
        "gm"
      ],
      [
        "O",
        "DE"
      ],
      [
        "b",
        "uiltin"
      ],
      [
        "d",
        "as"
      ],
      [
        "Ġc",
        "p"
      ],
      [
        "ol",
        "or"
      ],
      [
        "Ġst",
        "roke"
      ],
      [
        "ass",
        "istant"
      ],
      [
        "10",
        "1"
      ],
      [
        "Ġ\\\"",
        "/"
      ],
      [
        "Ġser",
        "vices"
      ],
      [
        "Ġun",
        "ique"
      ],
      [
        "ded",
        "up"
      ],
      [
        "Ġrep",
        "air"
      ],
      [
        "6",
        "00"
      ],
      [
        "F",
        "I"
      ],
      [
        "Ġ\"",
        "("
      ],
      [
        "Ġp",
        "e"
      ],
      [
        "Ġc",
        "ras"
      ],
      [
        "Ġc",
        "lean"
      ],
      [
        "Ġn",
        "c"
      ],
      [
        "Ġex",
        "per"
      ],
      [
        "res",
        "ho"
      ],
      [
        "ĠD",
        "one"
      ],
      [
        "Ġ~/",
        "."
      ],
      [
        "comp",
        "le"
      ],
      [
        "Ġexper",
        "t"
      ],
      [
        "+",
        "+"
      ],
      [
        "i",
        "ed"
      ],
      [
        "Ġg",
        "rammar"
      ],
      [
        "Ġin",
        "sert"
      ],
      [
        "up",
        "per"
      ],
      [
        "ĠG",
        "et"
      ],
      [
        "Ġwor",
        "ds"
      ],
      [
        "std",
        "out"
      ],
      [
        "i",
        "ch"
      ],
      [
        "p",
        "ractice"
      ],
      [
        "w",
        "a"
      ],
      [
        "Ġx",
        "p"
      ],
      [
        "Ġl",
        "s"
      ],
      [
        "Ġl",
        "ite"
      ],
      [
        "ur",
        "ple"
      ],
      [
        "all",
        "ib"
      ],
      [
        "con",
        "fig"
      ],
      [
        "ĠFunction",
        "s"
      ],
      [
        "asc",
        "iz"
      ],
      [
        "Ġlite",
        "ra"
      ],
      [
        "âķ",
        "ĳ"
      ],
      [
        "ra",
        "rr"
      ],
      [
        "Ġm",
        "lx"
      ],
      [
        "ff",
        "ect"
      ],
      [
        "Ġra",
        "zer"
      ],
      [
        "gen",
        "ce"
      ],
      [
        "atche",
        "d"
      ],
      [
        "Ġcompute",
        "s"
      ],
      [
        "bad",
        "ge"
      ],
      [
        "b",
        "rew"
      ],
      [
        "n",
        "C"
      ],
      [
        "r",
        "m"
      ],
      [
        "Ġp",
        "lan"
      ],
      [
        "ĠSt",
        "art"
      ],
      [
        "Ġfact",
        "orial"
      ],
      [
        "home",
        "brew"
      ],
      [
        "Ġ\"*",
        "\""
      ],
      [
        "-",
        "%"
      ],
      [
        "S",
        "t"
      ],
      [
        "f",
        "er"
      ],
      [
        "Ġ2",
        "4"
      ],
      [
        "Ġg",
        "uard"
      ],
      [
        "Ġt",
        "wo"
      ],
      [
        "Ġq",
        "ue"
      ],
      [
        "Ġsp",
        "awn"
      ],
      [
        "Ġla",
        "bel"
      ],
      [
        "Ġfunction",
        "al"
      ],
      [
        "comp",
        "il"
      ],
      [
        "Ġexec",
        "ute"
      ],
      [
        "(",
        ")\\"
      ],
      [
        "b",
        "uild"
      ],
      [
        "f",
        "w"
      ],
      [
        "al",
        "pha"
      ],
      [
        "Ġpre",
        "d"
      ],
      [
        "ration",
        "s"
      ],
      [
        "Ġ\"%",
        "\""
      ],
      [
        "Ġcomman",
        "ds"
      ],
      [
        "Ġrecur",
        "sion"
      ],
      [
        "4",
        "00"
      ],
      [
        "Y",
        "PE"
      ],
      [
        "Ġ",
        "\\"
      ],
      [
        "Ġ",
        "hello"
      ],
      [
        "st",
        "ra"
      ],
      [
        "Ġre",
        "g"
      ],
      [
        "Ġh",
        "dr"
      ],
      [
        "rain",
        "ing"
      ],
      [
        "Ġar",
        "m"
      ],
      [
        "ĠA",
        "n"
      ],
      [
        "val",
        "id"
      ],
      [
        "Ġesc",
        "a"
      ],
      [
        "ĠJSON",
        "L"
      ],
      [
        "resp",
        "onse"
      ],
      [
        "CT",
        "YPE"
      ],
      [
        "DO",
        "CTYPE"
      ],
      [
        "Ġcras",
        "hes"
      ],
      [
        "e",
        "of"
      ],
      [
        "Ġb",
        "uil"
      ],
      [
        "Ġr",
        "c"
      ],
      [
        "cat",
        "aly"
      ],
      [
        "col",
        "lect"
      ],
      [
        "ĠI",
        "O"
      ],
      [
        "ĠM",
        "ini"
      ],
      [
        "ction",
        "s"
      ],
      [
        "host",
        "ing"
      ],
      [
        "ĠSt",
        "at"
      ],
      [
        "comp",
        "ose"
      ],
      [
        "0",
        "8"
      ],
      [
        "p",
        "urple"
      ],
      [
        "Ġ",
        "Q"
      ],
      [
        "Ġ",
        "âķĳ"
      ],
      [
        "Ġt",
        "able"
      ],
      [
        "Ġc",
        "v"
      ],
      [
        "th",
        "en"
      ],
      [
        "Ġe",
        "xt"
      ],
      [
        "per",
        "l"
      ],
      [
        "\\\":\\\"",
        "\","
      ],
      [
        "Ġ\"âķ",
        "ĳ"
      ],
      [
        "ĠErr",
        "or"
      ],
      [
        "Ġaw",
        "k"
      ],
      [
        "bra",
        "cket"
      ],
      [
        "Ġâķĳ",
        "\""
      ],
      [
        "q",
        "rt"
      ],
      [
        "Ġf",
        "ull"
      ],
      [
        "Ġre",
        "v"
      ],
      [
        "ing",
        "le"
      ],
      [
        "ĠR",
        "E"
      ],
      [
        "Ġ'",
        "{"
      ],
      [
        "c",
        "ore"
      ],
      [
        "k",
        "ill"
      ],
      [
        "s",
        "ince"
      ],
      [
        "Ġ",
        "z"
      ],
      [
        "Ġs",
        "n"
      ],
      [
        "Ġst",
        "ore"
      ],
      [
        "od",
        "d"
      ],
      [
        "3",
        "9"
      ],
      [
        "R",
        "e"
      ],
      [
        "l",
        "t"
      ],
      [
        "p",
        "age"
      ],
      [
        "Ġg",
        "t"
      ],
      [
        "ĠC",
        "SS"
      ],
      [
        "cle",
        "an"
      ],
      [
        "ard",
        "s"
      ],
      [
        ")",
        "}\""
      ],
      [
        "âķ",
        "Ĺ"
      ],
      [
        "ra",
        "y"
      ],
      [
        "Ġf",
        "args"
      ],
      [
        "\\\"",
        "><"
      ],
      [
        "ul",
        "se"
      ],
      [
        "ist",
        "ry"
      ],
      [
        "Ġan",
        "alysis"
      ],
      [
        "ĠP",
        "OST"
      ],
      [
        "Ġcode",
        "gen"
      ],
      [
        "ĠG",
        "raph"
      ],
      [
        "ab",
        "s"
      ],
      [
        "Ġstring",
        "s"
      ],
      [
        "ĠĠĠĠĠĠĠĠ",
        "ĠĠĠĠĠĠĠĠ"
      ],
      [
        "wor",
        "k"
      ],
      [
        "i",
        "ma"
      ],
      [
        "Ġ\"",
        "]\\"
      ],
      [
        "Ġp",
        "atch"
      ],
      [
        "ct",
        "x"
      ],
      [
        "\\\\",
        "\\\""
      ],
      [
        "pl",
        "ore"
      ],
      [
        "print",
        "f"
      ],
      [
        "cs",
        "v"
      ],
      [
        "iel",
        "ds"
      ],
      [
        "comple",
        "tions"
      ],
      [
        "Ġesca",
        "ped"
      ],
      [
        "3",
        "1"
      ],
      [
        "5",
        "7"
      ],
      [
        "A",
        "SS"
      ],
      [
        "le",
        "ase"
      ],
      [
        "Ġt",
        "itle"
      ],
      [
        "st",
        "rip"
      ],
      [
        "ar",
        "en"
      ],
      [
        "ĠE",
        "xtract"
      ],
      [
        "Ġhe",
        "aders"
      ],
      [
        "'",
        ":"
      ],
      [
        "'",
        ";"
      ],
      [
        "/",
        "\","
      ],
      [
        "t",
        "ry"
      ],
      [
        "Ġ",
        "err"
      ],
      [
        "Ġc",
        "d"
      ],
      [
        "de",
        "co"
      ],
      [
        "la",
        "unchctl"
      ],
      [
        "Ġ.",
        ".."
      ],
      [
        "Ġret",
        "ry"
      ],
      [
        "Ġsum",
        "Tree"
      ],
      [
        "deco",
        "ration"
      ],
      [
        "'",
        ";\""
      ],
      [
        "]",
        "\""
      ],
      [
        "b",
        "ind"
      ],
      [
        "c",
        "ed"
      ],
      [
        "n",
        "E"
      ],
      [
        "p",
        "atched"
      ],
      [
        "r",
        "ut"
      ],
      [
        "u",
        "se"
      ],
      [
        "Ġ",
        "mp"
      ],
      [
        "re",
        "ak"
      ],
      [
        "Ġc",
        "ut"
      ],
      [
        "ho",
        "uld"
      ],
      [
        "ma",
        "ke"
      ],
      [
        "Ġr",
        "bp"
      ],
      [
        "ram",
        "es"
      ],
      [
        "har",
        "t"
      ],
      [
        "Ġmodel",
        "s"
      ],
      [
        "OM",
        "PI"
      ],
      [
        "Ġbe",
        "fore"
      ],
      [
        "(",
        "-"
      ],
      [
        "T",
        "ime"
      ],
      [
        "f",
        "v"
      ],
      [
        "n",
        "O"
      ],
      [
        "ĠF",
        "or"
      ],
      [
        "test",
        "s"
      ],
      [
        "ĠV",
        "ar"
      ],
      [
        "Ġ\")",
        "\"]"
      ],
      [
        "foo",
        "ter"
      ],
      [
        "AS",
        "M"
      ],
      [
        "S",
        "tr"
      ],
      [
        "p",
        "tr"
      ],
      [
        "Ġ\"",
        "{"
      ],
      [
        "re",
        "quest"
      ],
      [
        "Ġf",
        "ound"
      ],
      [
        "Ġf",
        "leet"
      ],
      [
        "Ġ1",
        "4"
      ],
      [
        "all",
        "back"
      ],
      [
        "std",
        "lib"
      ],
      [
        "l",
        "p"
      ],
      [
        "n",
        "ames"
      ],
      [
        "o",
        "range"
      ],
      [
        "an",
        "nel"
      ],
      [
        "Ġ*",
        "*"
      ],
      [
        "Ġme",
        "m"
      ],
      [
        "ĠSt",
        "ate"
      ],
      [
        "ĠNO",
        "T"
      ],
      [
        "terf",
        "all"
      ],
      [
        "(",
        "))"
      ],
      [
        "L",
        "I"
      ],
      [
        "R",
        "E"
      ],
      [
        "e",
        "volve"
      ],
      [
        "f",
        "rames"
      ],
      [
        "o",
        "st"
      ],
      [
        "Ġs",
        "iblings"
      ],
      [
        "se",
        "arch"
      ],
      [
        "Ġpr",
        "odu"
      ],
      [
        "Ġb",
        "rain"
      ],
      [
        "Ġm",
        "onitor"
      ],
      [
        "ser",
        "vices"
      ],
      [
        "Ġlist",
        "s"
      ],
      [
        "Ġse",
        "en"
      ],
      [
        "key",
        "frames"
      ],
      [
        "rep",
        "are"
      ],
      [
        "Ġwh",
        "at"
      ],
      [
        "Ġmark",
        "down"
      ],
      [
        "Ġ\"},",
        "\","
      ],
      [
        "Ġro",
        "ot"
      ],
      [
        "b",
        "atch"
      ],
      [
        "Ġ\"",
        "!"
      ],
      [
        "re",
        "peat"
      ],
      [
        "Ġ[",
        "("
      ],
      [
        "Ġin",
        "dex"
      ],
      [
        "ag",
        "no"
      ],
      [
        "Ġparse",
        "s"
      ],
      [
        "Ġsplit",
        "s"
      ],
      [
        "Ġsc",
        "ore"
      ],
      [
        "Ġsave",
        "d"
      ],
      [
        "Ġdo",
        "es"
      ],
      [
        "cont",
        "rol"
      ],
      [
        "4",
        "9"
      ],
      [
        "R",
        "O"
      ],
      [
        "b",
        "ut"
      ],
      [
        "b",
        "lock"
      ],
      [
        "i",
        "ven"
      ],
      [
        "Ġ",
        "own"
      ],
      [
        "Ġl",
        "r"
      ],
      [
        "Ġre",
        "port"
      ],
      [
        "file",
        "s"
      ],
      [
        "ĠA",
        "PI"
      ],
      [
        "Ġ'",
        "\","
      ],
      [
        "Ġcomp",
        "lete"
      ],
      [
        "ok",
        "up"
      ],
      [
        "Ġbo",
        "th"
      ],
      [
        "Ġhel",
        "per"
      ],
      [
        "R",
        "AIN"
      ],
      [
        "d",
        "bl"
      ],
      [
        "f",
        "low"
      ],
      [
        "Ġ",
        "div"
      ],
      [
        "Ġ\"",
        "="
      ],
      [
        "Ġf",
        "d"
      ],
      [
        "Ġw",
        "idth"
      ],
      [
        "str",
        "uct"
      ],
      [
        "ĠI",
        "NT"
      ],
      [
        "uple",
        "s"
      ],
      [
        "'",
        "/"
      ],
      [
        "C",
        "olor"
      ],
      [
        "d",
        "up"
      ],
      [
        "le",
        "s"
      ],
      [
        "Ġle",
        "x"
      ],
      [
        "Ġs",
        "ed"
      ],
      [
        "Ġb",
        "ound"
      ],
      [
        "Ġ3",
        "2"
      ],
      [
        "Ġex",
        "plan"
      ],
      [
        "Ġas",
        "st"
      ],
      [
        "app",
        "s"
      ],
      [
        "row",
        "th"
      ],
      [
        "33",
        "3"
      ],
      [
        "Ġsc",
        "rut"
      ],
      [
        "Ġtra",
        "ns"
      ],
      [
        "Ġmerge",
        "d"
      ],
      [
        "âķĹ",
        "\""
      ],
      [
        "Ġexplan",
        "ation"
      ],
      [
        "T",
        "he"
      ],
      [
        "Ġ\"\\",
        "\\\\\\\""
      ],
      [
        ")))",
        "\\"
      ],
      [
        "Ġdi",
        "st"
      ],
      [
        "mk",
        "dir"
      ],
      [
        "o",
        "id"
      ],
      [
        "u",
        "sers"
      ],
      [
        "re",
        "lease"
      ],
      [
        "Ġ[",
        "["
      ],
      [
        "an",
        "s"
      ],
      [
        "ex",
        "pected"
      ],
      [
        "Ġap",
        "ply"
      ],
      [
        "read",
        "y"
      ],
      [
        "ob",
        "j"
      ],
      [
        "L",
        "IN"
      ],
      [
        "a",
        "x"
      ],
      [
        "Ġ\"",
        "{\\\""
      ],
      [
        "Ġs",
        "imple"
      ],
      [
        "ra",
        "n"
      ],
      [
        "at",
        "her"
      ],
      [
        "Ġn",
        "ested"
      ],
      [
        "Ġas",
        "m"
      ],
      [
        "ce",
        "pt"
      ],
      [
        "ĠB",
        "uild"
      ],
      [
        "ĠĠĠĠĠĠĠĠ",
        "ĠĠ"
      ],
      [
        "atche",
        "s"
      ],
      [
        "mis",
        "sion"
      ],
      [
        "*",
        "*"
      ],
      [
        "O",
        "O"
      ],
      [
        "j",
        "k"
      ],
      [
        "st",
        "ack"
      ],
      [
        "Ġw",
        "ri"
      ],
      [
        "bo",
        "ot"
      ],
      [
        "qu",
        "ery"
      ],
      [
        "Ġdesc",
        "ription"
      ],
      [
        "HT",
        "TP"
      ],
      [
        "Ġ",
        "}\""
      ],
      [
        "Ġs",
        "sh"
      ],
      [
        "it",
        "ies"
      ],
      [
        "ĠA",
        "I"
      ],
      [
        "ĠM",
        "k"
      ],
      [
        "pro",
        "c"
      ],
      [
        "Ġresp",
        "on"
      ],
      [
        "sum",
        "Tree"
      ],
      [
[...]
